{
  "version": "1.0",
  "truncation": null,
  "padding": null,
  "added_tokens": [
    {
      "id": 0,
      "content": "<|pad|>",
      "single_word": false,
      "lstrip": false,
      "rstrip": false,
      "normalized": false,
      "special": true
    },
    {
      "id": 1,
      "content": "<|eos|>",
      "single_word": false,
      "lstrip": false,
      "rstrip": false,
      "normalized": false,
      "special": true
    },
    {
      "id": 2,
      "content": "<|bos|>",
      "single_word": false,
      "lstrip": false,
      "rstrip": false,
      "normalized": false,
      "special": true
    },
    {
      "id": 3,
      "content": "<|unk|>",
      "single_word": false,
      "lstrip": false,
      "rstrip": false,
      "normalized": false,
      "special": true
    },
    {
      "id": 4,
      "content": "<|system|>",
      "single_word": false,
      "lstrip": false,
      "rstrip": false,
      "normalized": false,
      "special": true
    },
    {
      "id": 5,
      "content": "<|user|>",
      "single_word": false,
      "lstrip": false,
      "rstrip": false,
      "normalized": false,
      "special": true
    },
    {
      "id": 6,
      "content": "<|assistant|>",
      "single_word": false,
      "lstrip": false,
      "rstrip": false,
      "normalized": false,
      "special": true
    },
    {
      "id": 7,
      "content": "<|image|>",
      "single_word": false,
      "lstrip": false,
      "rstrip": false,
      "normalized": false,
      "special": true
    },
    {
      "id": 8,
      "content": "<|audio|>",
      "single_word": false,
      "lstrip": false,
      "rstrip": false,
      "normalized": false,
      "special": true
    },
    {
      "id": 9,
      "content": "<|video|>",
      "single_word": false,
      "lstrip": false,
      "rstrip": false,
      "normalized": false,
      "special": true
    },
    {
      "id": 10,
      "content": "<|code|>",
      "single_word": false,
      "lstrip": false,
      "rstrip": false,
      "normalized": false,
      "special": true
    },
    {
      "id": 11,
      "content": "<|tool_call|>",
      "single_word": false,
      "lstrip": false,
      "rstrip": false,
      "normalized": false,
      "special": true
    },
    {
      "id": 12,
      "content": "<|tool_result|>",
      "single_word": false,
      "lstrip": false,
      "rstrip": false,
      "normalized": false,
      "special": true
    },
    {
      "id": 13,
      "content": "<|agent|>",
      "single_word": false,
      "lstrip": false,
      "rstrip": false,
      "normalized": false,
      "special": true
    },
    {
      "id": 14,
      "content": "<|agent_end|>",
      "single_word": false,
      "lstrip": false,
      "rstrip": false,
      "normalized": false,
      "special": true
    },
    {
      "id": 15,
      "content": "<|patch_start|>",
      "single_word": false,
      "lstrip": false,
      "rstrip": false,
      "normalized": false,
      "special": true
    },
    {
      "id": 16,
      "content": "<|patch_end|>",
      "single_word": false,
      "lstrip": false,
      "rstrip": false,
      "normalized": false,
      "special": true
    }
  ],
  "normalizer": null,
  "pre_tokenizer": {
    "type": "ByteLevel",
    "add_prefix_space": false,
    "trim_offsets": true,
    "use_regex": true
  },
  "post_processor": null,
  "decoder": {
    "type": "ByteLevel",
    "add_prefix_space": true,
    "trim_offsets": true,
    "use_regex": true
  },
  "model": {
    "type": "BPE",
    "dropout": null,
    "unk_token": null,
    "continuing_subword_prefix": null,
    "end_of_word_suffix": null,
    "fuse_unk": false,
    "byte_fallback": false,
    "ignore_merges": false,
    "vocab": {
      "<|pad|>": 0,
      "<|eos|>": 1,
      "<|bos|>": 2,
      "<|unk|>": 3,
      "<|system|>": 4,
      "<|user|>": 5,
      "<|assistant|>": 6,
      "<|image|>": 7,
      "<|audio|>": 8,
      "<|video|>": 9,
      "<|code|>": 10,
      "<|tool_call|>": 11,
      "<|tool_result|>": 12,
      "<|agent|>": 13,
      "<|agent_end|>": 14,
      "<|patch_start|>": 15,
      "<|patch_end|>": 16,
      "!": 17,
      "\"": 18,
      "#": 19,
      "$": 20,
      "%": 21,
      "&": 22,
      "'": 23,
      "(": 24,
      ")": 25,
      "*": 26,
      "+": 27,
      ",": 28,
      "-": 29,
      ".": 30,
      "/": 31,
      "0": 32,
      "1": 33,
      "2": 34,
      "3": 35,
      "4": 36,
      "5": 37,
      "6": 38,
      "7": 39,
      "8": 40,
      "9": 41,
      ":": 42,
      ";": 43,
      "<": 44,
      "=": 45,
      ">": 46,
      "?": 47,
      "@": 48,
      "A": 49,
      "B": 50,
      "C": 51,
      "D": 52,
      "E": 53,
      "F": 54,
      "G": 55,
      "H": 56,
      "I": 57,
      "J": 58,
      "K": 59,
      "L": 60,
      "M": 61,
      "N": 62,
      "O": 63,
      "P": 64,
      "Q": 65,
      "R": 66,
      "S": 67,
      "T": 68,
      "U": 69,
      "V": 70,
      "W": 71,
      "X": 72,
      "Y": 73,
      "Z": 74,
      "[": 75,
      "\\": 76,
      "]": 77,
      "_": 78,
      "`": 79,
      "a": 80,
      "b": 81,
      "c": 82,
      "d": 83,
      "e": 84,
      "f": 85,
      "g": 86,
      "h": 87,
      "i": 88,
      "j": 89,
      "k": 90,
      "l": 91,
      "m": 92,
      "n": 93,
      "o": 94,
      "p": 95,
      "q": 96,
      "r": 97,
      "s": 98,
      "t": 99,
      "u": 100,
      "v": 101,
      "w": 102,
      "x": 103,
      "y": 104,
      "z": 105,
      "{": 106,
      "|": 107,
      "}": 108,
      "~": 109,
      "¬": 110,
      "±": 111,
      "²": 112,
      "´": 113,
      "¹": 114,
      "¼": 115,
      "Ã": 116,
      "â": 117,
      "Ċ": 118,
      "Ġ": 119,
      "Ģ": 120,
      "Ĥ": 121,
      "ħ": 122,
      "Ĩ": 123,
      "ī": 124,
      "Į": 125,
      "Ĳ": 126,
      "Ĵ": 127,
      "ĵ": 128,
      "Ķ": 129,
      "ĸ": 130,
      "ĺ": 131,
      "ľ": 132,
      "ł": 133,
      "Ġt": 134,
      "he": 135,
      "Ġa": 136,
      "Ġs": 137,
      "ou": 138,
      "in": 139,
      "Ġm": 140,
      "Ġw": 141,
      "re": 142,
      "ha": 143,
      "nd": 144,
      "Ġthe": 145,
      "Ġb": 146,
      "or": 147,
      "is": 148,
      "ĠĠ": 149,
      "er": 150,
      "Ġf": 151,
      "on": 152,
      "ll": 153,
      "it": 154,
      "en": 155,
      "Ġc": 156,
      "Ġd": 157,
      "Ġn": 158,
      "es": 159,
      "Ġl": 160,
      "ar": 161,
      "Ġy": 162,
      "Ġth": 163,
      "Ġto": 164,
      "Ġh": 165,
      "Ġo": 166,
      "Ġp": 167,
      "Ġyou": 168,
      "hat": 169,
      "ĠI": 170,
      "Ġhe": 171,
      "ve": 172,
      "ot": 173,
      "at": 174,
      "st": 175,
      "an": 176,
      "ing": 177,
      "om": 178,
      "Ġand": 179,
      "ow": 180,
      "Ġof": 181,
      "Ġg": 182,
      "se": 183,
      "Ġbe": 184,
      "Ġin": 185,
      "ce": 186,
      "Ġmy": 187,
      "le": 188,
      "Ġha": 189,
      "ay": 190,
      "im": 191,
      "ed": 192,
      "et": 193,
      "ut": 194,
      "ir": 195,
      "ld": 196,
      "ĠĠĠĠ": 197,
      "ch": 198,
      "Ġme": 199,
      "ith": 200,
      "Ġnot": 201,
      "'s": 202,
      "od": 203,
      "Ġis": 204,
      "Ġfor": 205,
      "gh": 206,
      "Ġthat": 207,
      "And": 208,
      "ke": 209,
      "Ġu": 210,
      "our": 211,
      "Ġwe": 212,
      "ad": 213,
      "Ġe": 214,
      "ent": 215,
      "ill": 216,
      "her": 217,
      "Ġwith": 218,
      "id": 219,
      "Ġit": 220,
      "Ġyour": 221,
      "Ġst": 222,
      "al": 223,
      "Ġthou": 224,
      "Ġre": 225,
      "as": 226,
      "ri": 227,
      "'d": 228,
      "Ġk": 229,
      "==": 230,
      "ome": 231,
      "ra": 232,
      "Ġhis": 233,
      "ght": 234,
      "EN": 235,
      "ur": 236,
      "ord": 237,
      "The": 238,
      "ly": 239,
      "Ġhave": 240,
      "IN": 241,
      "Ġde": 242,
      "ro": 243,
      "Ġli": 244,
      "Ġhim": 245,
      "ĠĠĠ": 246,
      "Ġthis": 247,
      "IO": 248,
      "Ġso": 249,
      "Ġas": 250,
      "Ġse": 251,
      "Ġon": 252,
      "ore": 253,
      "AR": 254,
      "hi": 255,
      "ck": 256,
      "ould": 257,
      "ood": 258,
      "ver": 259,
      "ain": 260,
      "am": 261,
      "Ġlo": 262,
      "if": 263,
      "est": 264,
      "pe": 265,
      "ge": 266,
      "ess": 267,
      "ion": 268,
      "Ġsha": 269,
      "Ġthy": 270,
      "us": 271,
      "Ġdo": 272,
      "Ġwill": 273,
      "Ġno": 274,
      "lf": 275,
      "and": 276,
      "Ġbut": 277,
      "US": 278,
      "To": 279,
      "Ġsu": 280,
      "Th": 281,
      "Ġall": 282,
      "ru": 283,
      "ake": 284,
      "th": 285,
      "ard": 286,
      "Ġher": 287,
      "ter": 288,
      "Ġan": 289,
      "han": 290,
      "ast": 291,
      "rom": 292,
      "ct": 293,
      "ell": 294,
      "Ġne": 295,
      "Ġour": 296,
      "Ġthee": 297,
      "Ġby": 298,
      "ĠC": 299,
      "Ġshall": 300,
      "Ġv": 301,
      "il": 302,
      "ho": 303,
      "UC": 304,
      "ĠR": 305,
      "ĠĠĠĠĠĠĠ": 306,
      "ak": 307,
      "ig": 308,
      "ul": 309,
      "Ġare": 310,
      "ING": 311,
      "ol": 312,
      "ear": 313,
      "Ġfa": 314,
      "====": 315,
      "Ġkn": 316,
      "AN": 317,
      "Ġcon": 318,
      "That": 319,
      "ER": 320,
      "ath": 321,
      "OR": 322,
      "ous": 323,
      "ight": 324,
      "Ġwhat": 325,
      "ant": 326,
      "art": 327,
      "Ġpr": 328,
      "Ġsh": 329,
      "qu": 330,
      "ic": 331,
      "one": 332,
      "Ġ'": 333,
      "ES": 334,
      "ET": 335,
      "--": 336,
      "nt": 337,
      "ine": 338,
      "Ġup": 339,
      "ĠM": 340,
      "Ġ=": 341,
      "But": 342,
      "em": 343,
      "el": 344,
      "ĠS": 345,
      "ust": 346,
      "Ġgood": 347,
      "Ġcom": 348,
      "âĶ": 349,
      "Ġat": 350,
      "row": 351,
      "Ġlord": 352,
      "hich": 353,
      "ĠE": 354,
      "out": 355,
      "'ll": 356,
      "ie": 357,
      "Ġif": 358,
      "Ġman": 359,
      "What": 360,
      "Ġwhe": 361,
      "self": 362,
      "ble": 363,
      "KING": 364,
      "au": 365,
      "Ġam": 366,
      "are": 367,
      "ĠG": 368,
      "ry": 369,
      "ong": 370,
      "Ġfrom": 371,
      "end": 372,
      "Ġbl": 373,
      "ep": 374,
      "ive": 375,
      "ven": 376,
      "ĠL": 377,
      "ers": 378,
      "He": 379,
      "For": 380,
      "ok": 381,
      "IC": 382,
      "Ġshe": 383,
      "ate": 384,
      "Ġmore": 385,
      "Ġthem": 386,
      "Ġwas": 387,
      "ort": 388,
      "oth": 389,
      "other": 390,
      "ost": 391,
      "Ġsir": 392,
      "res": 393,
      "Ġnow": 394,
      "ind": 395,
      "Ġhat": 396,
      "all": 397,
      "ave": 398,
      "LO": 399,
      "ond": 400,
      "Ġsw": 401,
      "Ġthere": 402,
      "fe": 403,
      "Ġwould": 404,
      "Ġcan": 405,
      "Ġknow": 406,
      "Ġbr": 407,
      "IUS": 408,
      "Ġor": 409,
      "ather": 410,
      "ARD": 411,
      "ĠO": 412,
      "Ġsay": 413,
      "Ġar": 414,
      "ĠB": 415,
      "Ġhere": 416,
      "Ġlove": 417,
      "ĢâĶ": 418,
      "Ġtheir": 419,
      "Ġus": 420,
      "Ġthan": 421,
      "Ġthen": 422,
      "Ġking": 423,
      "Ġgo": 424,
      "Ġthey": 425,
      "My": 426,
      "Ġspe": 427,
      "Ġlet": 428,
      "ame": 429,
      "ĢâĶĢâĶ": 430,
      "Ġun": 431,
      "ure": 432,
      "ĠV": 433,
      "pp": 434,
      "io": 435,
      "ĠH": 436,
      "Ġle": 437,
      "ink": 438,
      "Ġwor": 439,
      "ĠA": 440,
      "Ġqu": 441,
      "fore": 442,
      "hy": 443,
      "Ġmay": 444,
      "LI": 445,
      "Ġcome": 446,
      "Whe": 447,
      "um": 448,
      "ish": 449,
      "As": 450,
      "ĠP": 451,
      "Ġj": 452,
      "Ġwell": 453,
      "KE": 454,
      "irst": 455,
      "ves": 456,
      "ity": 457,
      "Ġone": 458,
      "ound": 459,
      "pt": 460,
      "un": 461,
      "Ġag": 462,
      "Ġhath": 463,
      "ist": 464,
      "You": 465,
      "Ġmake": 466,
      "Ġho": 467,
      "reat": 468,
      "iz": 469,
      "lo": 470,
      "Ġr": 471,
      "Ġmust": 472,
      "Ġpro": 473,
      "ue": 474,
      "Ġsp": 475,
      "Ġgra": 476,
      "ci": 477,
      "Ġwere": 478,
      "RO": 479,
      "Ġsee": 480,
      "ime": 481,
      "Ġlike": 482,
      "TIO": 483,
      "ward": 484,
      "Ġshould": 485,
      "ice": 486,
      "Ġpl": 487,
      "Ġmad": 488,
      "========": 489,
      "Ġfather": 490,
      "Ġhad": 491,
      "Ġdid": 492,
      "ng": 493,
      "Ġupon": 494,
      "Ġen": 495,
      "Ġout": 496,
      "ON": 497,
      "ĠW": 498,
      "Ġfo": 499,
      "ence": 500,
      "ag": 501,
      "nce": 502,
      "ose": 503,
      "own": 504,
      "IS": 505,
      "Ġdeath": 506,
      "Ġpo": 507,
      "man": 508,
      "ace": 509,
      "age": 510,
      "OL": 511,
      "Ġspeak": 512,
      "entle": 513,
      "very": 514,
      "AU": 515,
      "Ġwhich": 516,
      "ICH": 517,
      "EL": 518,
      "Ġfri": 519,
      "ful": 520,
      "ign": 521,
      "DU": 522,
      "ies": 523,
      "Ġagain": 524,
      "DUKE": 525,
      "ase": 526,
      "Ġhow": 527,
      "ick": 528,
      "ack": 529,
      "Ġyet": 530,
      "Ġtru": 531,
      "Ġbo": 532,
      "Ġtoo": 533,
      "Ġheart": 534,
      "urn": 535,
      "CA": 536,
      "Ġhand": 537,
      "ide": 538,
      "Thou": 539,
      "ance": 540,
      "de": 541,
      "ICHARD": 542,
      "ENTIO": 543,
      "With": 544,
      "Ġmar": 545,
      "har": 546,
      "fig": 547,
      "Ġsome": 548,
      "Ġwho": 549,
      "ens": 550,
      "Ġself": 551,
      "Ġwhen": 552,
      "Ġsa": 553,
      "Which": 554,
      "ire": 555,
      "If": 556,
      "ĠT": 557,
      "ĠY": 558,
      "Ġoff": 559,
      "Ġmine": 560,
      "Ġhon": 561,
      "In": 562,
      "orn": 563,
      "We": 564,
      "ince": 565,
      "INC": 566,
      "'t": 567,
      "Ġson": 568,
      "Ġdis": 569,
      "ff": 570,
      "wn": 571,
      "Ġal": 572,
      "Ġtime": 573,
      "Ġex": 574,
      "ec": 575,
      "First": 576,
      "uch": 577,
      "Ġhea": 578,
      "Ġhear": 579,
      "AB": 580,
      "Ġsuch": 581,
      "ness": 582,
      "LA": 583,
      "Ġpe": 584,
      "Ġbrother": 585,
      "No": 586,
      "ise": 587,
      "ation": 588,
      "Ġint": 589,
      "Ġblood": 590,
      "ĠD": 591,
      "Ġab": 592,
      "ither": 593,
      "UE": 594,
      "Why": 595,
      "Ġthese": 596,
      "Ġgive": 597,
      "ss": 598,
      "Ġro": 599,
      "Ġday": 600,
      "EST": 601,
      "op": 602,
      "ĠII": 603,
      "This": 604,
      "Ġear": 605,
      "ĠRICHARD": 606,
      "Ġtell": 607,
      "Ġthink": 608,
      "Ġlife": 609,
      "So": 610,
      "eet": 611,
      "Ġlook": 612,
      "UCH": 613,
      "Ġwhere": 614,
      "oul": 615,
      "Ġword": 616,
      "Ġey": 617,
      "Of": 618,
      "ther": 619,
      "Ġdes": 620,
      "GLO": 621,
      "ap": 622,
      "Ġtake": 623,
      "UCEST": 624,
      "Ġfriend": 625,
      "GLOUCEST": 626,
      "GLOUCESTER": 627,
      "ving": 628,
      "not": 629,
      "ady": 630,
      "een": 631,
      "ings": 632,
      "ass": 633,
      "rown": 634,
      "urse": 635,
      "Ġgentle": 636,
      "How": 637,
      "RY": 638,
      "QUE": 639,
      "way": 640,
      "ĠĠĠĠĠĠĠĠĠĠĠ": 641,
      "INCENTIO": 642,
      "QUEEN": 643,
      "xt": 644,
      "Ġim": 645,
      "tis": 646,
      "ĠOF": 647,
      "Ġart": 648,
      "LAN": 649,
      "Ġmost": 650,
      "UM": 651,
      "Where": 652,
      "Ġhonour": 653,
      "Now": 654,
      "Ġmuch": 655,
      "Ġwar": 656,
      "li": 657,
      "ment": 658,
      "Ġmade": 659,
      "Ġbet": 660,
      "Ġhast": 661,
      "ab": 662,
      "Ġtw": 663,
      "int": 664,
      "Ġfear": 665,
      "con": 666,
      "ower": 667,
      "ĠK": 668,
      "ENRY": 669,
      "aught": 670,
      "cc": 671,
      "Ġbre": 672,
      "Ġfl": 673,
      "LE": 674,
      "ber": 675,
      "Is": 676,
      "ough": 677,
      "ĠGod": 678,
      "Ġ\"": 679,
      "Ġcou": 680,
      "Ġpre": 681,
      "Ġnever": 682,
      "Be": 683,
      "Who": 684,
      "aster": 685,
      "Ġnew": 686,
      "ĠVINCENTIO": 687,
      "igh": 688,
      "Ġpart": 689,
      "Ġgreat": 690,
      "Ġfair": 691,
      "per": 692,
      "tle": 693,
      "Ġmen": 694,
      "orrow": 695,
      "ĠRome": 696,
      "ĢâĶĢâĶĢâĶĢâĶ": 697,
      "ran": 698,
      "uke": 699,
      "ree": 700,
      "ved": 701,
      "ft": 702,
      "Ġri": 703,
      "Ġcall": 704,
      "Ġcomm": 705,
      "IA": 706,
      "Ġsl": 707,
      "ORK": 708,
      "cl": 709,
      "Ġad": 710,
      "INIUS": 711,
      "Ġ(": 712,
      "Or": 713,
      "Ġany": 714,
      "Ġname": 715,
      "ult": 716,
      "Ġheaven": 717,
      "ud": 718,
      "red": 719,
      "atch": 720,
      "Ġstand": 721,
      "Ġcannot": 722,
      "It": 723,
      "Your": 724,
      "ite": 725,
      "Ġtrue": 726,
      "DW": 727,
      "ty": 728,
      "Ġma": 729,
      "orch": 730,
      "Ġhead": 731,
      "Ġbeen": 732,
      "DWARD": 733,
      "TH": 734,
      "ĠN": 735,
      "Ġper": 736,
      "Ġsweet": 737,
      ",--": 738,
      "hing": 739,
      "ull": 740,
      "Ġdoth": 741,
      "Ġown": 742,
      "Ġpray": 743,
      "ĠF": 744,
      "Ġsc": 745,
      "PET": 746,
      "Ġnoble": 747,
      "LUC": 748,
      "MEN": 749,
      "able": 750,
      "Ġple": 751,
      "ef": 752,
      "ouse": 753,
      "Ġco": 754,
      "ears": 755,
      "Ay": 756,
      "Come": 757,
      "There": 758,
      "Ġmo": 759,
      "Ġdone": 760,
      "ife": 761,
      "port": 762,
      "Ġwr": 763,
      "Ġmean": 764,
      "ger": 765,
      "Ġway": 766,
      "Ġother": 767,
      "aw": 768,
      "for": 769,
      "Ġnor": 770,
      "Ġcont": 771,
      "ress": 772,
      "When": 773,
      "EO": 774,
      "erv": 775,
      "ĠCl": 776,
      "dward": 777,
      "Ġchi": 778,
      "MEO": 779,
      "Ġra": 780,
      "Ġsoul": 781,
      "Ġbefore": 782,
      "Ġworld": 783,
      "ROMEO": 784,
      "Ġnight": 785,
      "Ġbear": 786,
      "ENIUS": 787,
      "MENENIUS": 788,
      "ause": 789,
      "Ġboth": 790,
      "Then": 791,
      "ction": 792,
      "aughter": 793,
      "RUCH": 794,
      "ee": 795,
      "Ġdead": 796,
      "Here": 797,
      "PETRUCH": 798,
      "PETRUCHIO": 799,
      "By": 800,
      "OM": 801,
      "sw": 802,
      "the": 803,
      "Ġke": 804,
      "Ġvery": 805,
      "TES": 806,
      "Ġqueen": 807,
      "less": 808,
      "aint": 809,
      "Than": 810,
      "HA": 811,
      "me": 812,
      "Ġdown": 813,
      "Ġmyself": 814,
      "COR": 815,
      "GR": 816,
      "Ġrem": 817,
      "ĠLord": 818,
      "Ġarm": 819,
      "()": 820,
      "Ġwh": 821,
      "Ġthus": 822,
      "IOLAN": 823,
      "IOLANUS": 824,
      "Sec": 825,
      "oy": 826,
      "Ġ#": 827,
      "Ġpres": 828,
      "Ġleave": 829,
      "CORIOLANUS": 830,
      "Second": 831,
      "Ġtr": 832,
      "Ġbeing": 833,
      "Ġunt": 834,
      "ĠEdward": 835,
      "ile": 836,
      "Ġres": 837,
      "Ġgrace": 838,
      "land": 839,
      "Ġbeg": 840,
      "Ġret": 841,
      "Ġeyes": 842,
      "BA": 843,
      "Ġmother": 844,
      "Ġold": 845,
      "================": 846,
      "Ġlong": 847,
      "INA": 848,
      "ĠEDWARD": 849,
      "che": 850,
      "Ġtra": 851,
      "itiz": 852,
      "Ġlive": 853,
      "les": 854,
      "Ġwo": 855,
      "Ġel": 856,
      "Ġever": 857,
      "Ġdef": 858,
      "ĠMar": 859,
      "ian": 860,
      "Ġchild": 861,
      "Let": 862,
      "ks": 863,
      "ĠJ": 864,
      "Ġmod": 865,
      "Ġwife": 866,
      "She": 867,
      "Ġaway": 868,
      "nder": 869,
      "sel": 870,
      "Ġcons": 871,
      "ĠIII": 872,
      "Ġru": 873,
      "Ġaf": 874,
      "oud": 875,
      "Ġwom": 876,
      "Ġstay": 877,
      "Ġpoor": 878,
      "Ġfriends": 879,
      "ach": 880,
      "come": 881,
      "os": 882,
      "wick": 883,
      "Ġmight": 884,
      "Ġfe": 885,
      "ps": 886,
      "ors": 887,
      "iss": 888,
      "Ġdie": 889,
      "Ġhar": 890,
      "arwick": 891,
      "Ġcomp": 892,
      "Ġcomes": 893,
      "Ġcrown": 894,
      "ows": 895,
      "Ġmany": 896,
      "Ġelse": 897,
      "get": 898,
      "Ġ|": 899,
      "ĠĠĠĠĠĠĠĠ": 900,
      "Tis": 901,
      "uck": 902,
      "Ġent": 903,
      "hall": 904,
      "ison": 905,
      "ĠYORK": 906,
      "dim": 907,
      "ied": 908,
      "Ġhouse": 909,
      "Ġthought": 910,
      "Ġrest": 911,
      "ISAB": 912,
      "ELLA": 913,
      "ISABELLA": 914,
      "erc": 915,
      "Ġcour": 916,
      "atter": 917,
      "RAN": 918,
      "ale": 919,
      "ne": 920,
      "rant": 921,
      "Ġ-": 922,
      "Ġtorch": 923,
      "Ġset": 924,
      "Ġlie": 925,
      "Ġreturn": 926,
      "__": 927,
      "ins": 928,
      "BR": 929,
      "JU": 930,
      "to": 931,
      "well": 932,
      "ilt": 933,
      "LIET": 934,
      "ONTES": 935,
      "ĠWarwick": 936,
      "LEONTES": 937,
      "JULIET": 938,
      "MI": 939,
      "SIC": 940,
      "ittle": 941,
      "Ġcl": 942,
      "Ġdaughter": 943,
      "Ġgone": 944,
      "Ġbetter": 945,
      "ought": 946,
      "Ġnothing": 947,
      "Ġprince": 948,
      "une": 949,
      "**": 950,
      "DY": 951,
      "His": 952,
      "Ġtong": 953,
      "Ġwit": 954,
      "sed": 955,
      "CE": 956,
      "Go": 957,
      "VOL": 958,
      "ENCE": 959,
      "LADY": 960,
      "Ġkeep": 961,
      "TA": 962,
      "ces": 963,
      "ray": 964,
      "Ġgri": 965,
      "PU": 966,
      "ier": 967,
      "hard": 968,
      "Ġnews": 969,
      "Well": 970,
      "ious": 971,
      "Ġtri": 972,
      "Ġsle": 973,
      "ork": 974,
      "ield": 975,
      "config": 976,
      "\")": 977,
      "ret": 978,
      "Ġthose": 979,
      "Ġpower": 980,
      "SICINIUS": 981,
      "put": 982,
      "Ġacc": 983,
      "Ġfirst": 984,
      "Ġlittle": 985,
      "Ġlords": 986,
      "Ġagainst": 987,
      "):": 988,
      "ail": 989,
      "Ġbest": 990,
      "Ġhour": 991,
      "Ġhence": 992,
      "ardon": 993,
      "akes": 994,
      "ST": 995,
      "St": 996,
      "ford": 997,
      "Ġend": 998,
      "Ġstr": 999,
      "Ġface": 1000,
      "Ġfoll": 1001,
      "Not": 1002,
      "Nay": 1003,
      "head": 1004,
      "ert": 1005,
      "ark": 1006,
      "Ġyoung": 1007,
      "Ġstill": 1008,
      "Ġkind": 1009,
      "Ġche": 1010,
      "Ġthing": 1011,
      "Ġgu": 1012,
      "led": 1013,
      "alk": 1014,
      "Ġapp": 1015,
      "Ġcha": 1016,
      "Ġpur": 1017,
      "ids": 1018,
      "ason": 1019,
      "Thy": 1020,
      "LUCIO": 1021,
      "ext": 1022,
      "pose": 1023,
      "Ġsm": 1024,
      "Ġput": 1025,
      "ĠIV": 1026,
      "eth": 1027,
      "Ġsub": 1028,
      "Ġconfig": 1029,
      "ichard": 1030,
      "Ġtwo": 1031,
      "ect": 1032,
      "Ġ1": 1033,
      "Ġban": 1034,
      "Ġback": 1035,
      "Ġhimself": 1036,
      "Ġcount": 1037,
      "RI": 1038,
      "iness": 1039,
      "its": 1040,
      "ates": 1041,
      "ried": 1042,
      "Ġdear": 1043,
      "cious": 1044,
      "Ġpeace": 1045,
      "Sir": 1046,
      "yal": 1047,
      "hile": 1048,
      "Ġunto": 1049,
      "Pro": 1050,
      "Ġtill": 1051,
      "eds": 1052,
      "ize": 1053,
      "ZAB": 1054,
      "Ġdre": 1055,
      "Ġhus": 1056,
      "ETH": 1057,
      "ĠELI": 1058,
      "Ġtherefore": 1059,
      "Ġhope": 1060,
      "Ġearth": 1061,
      "Ġwords": 1062,
      "ZABETH": 1063,
      "ĠELIZABETH": 1064,
      "Have": 1065,
      "band": 1066,
      "ius": 1067,
      "men": 1068,
      "orse": 1069,
      "Ġfind": 1070,
      "ener": 1071,
      "Ġcould": 1072,
      "Ġtongue": 1073,
      "ken": 1074,
      "Ġtre": 1075,
      "Ġlady": 1076,
      "Ġthine": 1077,
      "Ġhel": 1078,
      "ĠYork": 1079,
      "Ġright": 1080,
      "HENRY": 1081,
      "tw": 1082,
      "Ġfell": 1083,
      "enry": 1084,
      "Ġhigh": 1085,
      "Ġforth": 1086,
      "ople": 1087,
      "GE": 1088,
      "be": 1089,
      "mb": 1090,
      "Ġhome": 1091,
      "vere": 1092,
      "Ġseem": 1093,
      "hip": 1094,
      "ĠVI": 1095,
      "ĠRomeo": 1096,
      "Ġhusband": 1097,
      "CL": 1098,
      "WAR": 1099,
      "ĠWhat": 1100,
      "ister": 1101,
      "Ġchar": 1102,
      "Ġduke": 1103,
      "ator": 1104,
      "itizen": 1105,
      "\"\"": 1106,
      "Con": 1107,
      "Nor": 1108,
      "WIC": 1109,
      "fort": 1110,
      "of": 1111,
      "Ġâ": 1112,
      "uth": 1113,
      "Ġevery": 1114,
      "alse": 1115,
      "Ġthough": 1116,
      "WARWIC": 1117,
      "WARWICK": 1118,
      "UT": 1119,
      "Ġmind": 1120,
      "Ġbra": 1121,
      "Ġchan": 1122,
      "ĠHENRY": 1123,
      "ensor": 1124,
      "Nurse": 1125,
      "ia": 1126,
      "Ġ2": 1127,
      "Ġi": 1128,
      "Ġpri": 1129,
      "ird": 1130,
      "They": 1131,
      "Ġpeople": 1132,
      "cle": 1133,
      "ren": 1134,
      "Ġconf": 1135,
      "ĠHenry": 1136,
      "HAM": 1137,
      "IAN": 1138,
      "LET": 1139,
      "Ġlaw": 1140,
      "ary": 1141,
      "Ġonce": 1142,
      "ĠCitizen": 1143,
      "ĠRichard": 1144,
      "Ġshow": 1145,
      "Ġhands": 1146,
      "swer": 1147,
      "PULET": 1148,
      "EY": 1149,
      "Ġmaster": 1150,
      "Ġwhy": 1151,
      "ory": 1152,
      "Ġcause": 1153,
      "Ġpass": 1154,
      "Ġdev": 1155,
      "els": 1156,
      "aud": 1157,
      "Ġsaid": 1158,
      "All": 1159,
      "Good": 1160,
      "MIO": 1161,
      "Shall": 1162,
      "Ġx": 1163,
      "Ġbod": 1164,
      "Ġnone": 1165,
      "Ġgl": 1166,
      "ents": 1167,
      "ousin": 1168,
      "Ġjoy": 1169,
      "ervant": 1170,
      "NE": 1171,
      "bt": 1172,
      "ged": 1173,
      "Ġfort": 1174,
      "Ġbring": 1175,
      "audio": 1176,
      "Yet": 1177,
      "Ġdou": 1178,
      "UCKING": 1179,
      "ĠAn": 1180,
      "BRUT": 1181,
      "UCKINGHAM": 1182,
      "BRUTUS": 1183,
      "BRO": 1184,
      "BUCKINGHAM": 1185,
      "Do": 1186,
      "From": 1187,
      "TRAN": 1188,
      "gs": 1189,
      "iet": 1190,
      "old": 1191,
      "Ġmist": 1192,
      "rer": 1193,
      "Ġlight": 1194,
      "INGBRO": 1195,
      "ESS": 1196,
      "âĶĤ": 1197,
      "ĠBOL": 1198,
      "TRANIO": 1199,
      "INGBROKE": 1200,
      "ĠBOLINGBROKE": 1201,
      "ATH": 1202,
      "Will": 1203,
      "vost": 1204,
      "Ġ/": 1205,
      "Ġnat": 1206,
      "Ġthr": 1207,
      "uty": 1208,
      "Ġroyal": 1209,
      "Lo": 1210,
      "PER": 1211,
      "TIS": 1212,
      "ild": 1213,
      "lt": 1214,
      "Ġtears": 1215,
      "ition": 1216,
      "ĠMAR": 1217,
      "Ġwhose": 1218,
      "Ġplease": 1219,
      "vy": 1220,
      "Ġbid": 1221,
      "Ġfull": 1222,
      "Ġpardon": 1223,
      "Ġheard": 1224,
      "Ġstate": 1225,
      "roke": 1226,
      "Ġatt": 1227,
      "Ġjust": 1228,
      "GAR": 1229,
      "com": 1230,
      "ject": 1231,
      "oc": 1232,
      "Ġbes": 1233,
      "Ġcame": 1234,
      "Ġland": 1235,
      "Ġlast": 1236,
      "arry": 1237,
      "Ġhapp": 1238,
      "ute": 1239,
      "Ġunder": 1240,
      "ĠSIA": 1241,
      "Ġplace": 1242,
      "Ġboy": 1243,
      "Ġwrong": 1244,
      "ĠMARGAR": 1245,
      "ĠMARGARET": 1246,
      "Cl": 1247,
      "Ġap": 1248,
      "Ġsince": 1249,
      "Ġmis": 1250,
      "Ġere": 1251,
      "Ġpresent": 1252,
      "Ġafter": 1253,
      "MIL": 1254,
      "ict": 1255,
      "sand": 1256,
      "Ġbu": 1257,
      "ont": 1258,
      "Ġgod": 1259,
      "Ġmeet": 1260,
      "Ġkill": 1261,
      "ORD": 1262,
      "Ġhold": 1263,
      "Ġhelp": 1264,
      "CU": 1265,
      "HOR": 1266,
      "ew": 1267,
      "Ġsorrow": 1268,
      "Ġcare": 1269,
      "Ġless": 1270,
      "Ġthousand": 1271,
      "esty": 1272,
      "ANGE": 1273,
      "GRE": 1274,
      "ANGELO": 1275,
      "Ġ+": 1276,
      "ount": 1277,
      "ARINA": 1278,
      "Ġsun": 1279,
      "arence": 1280,
      "Ġwhom": 1281,
      "Ġfollow": 1282,
      "KATH": 1283,
      "day": 1284,
      "len": 1285,
      "pon": 1286,
      "Ġfar": 1287,
      "Ġhither": 1288,
      "ceive": 1289,
      "irt": 1290,
      "Ġweep": 1291,
      "Ġshame": 1292,
      "Ġanswer": 1293,
      "Ġneed": 1294,
      "cius": 1295,
      "Ġenem": 1296,
      "Ġabout": 1297,
      "Ġeye": 1298,
      "KATHARINA": 1299,
      ").": 1300,
      "Our": 1301,
      "Un": 1302,
      "air": 1303,
      "iol": 1304,
      "Ġpat": 1305,
      "urde": 1306,
      "Ġfall": 1307,
      "ices": 1308,
      "izer": 1309,
      "Ġfool": 1310,
      "\":": 1311,
      "An": 1312,
      "ple": 1313,
      "pro": 1314,
      "ised": 1315,
      "asure": 1316,
      "ross": 1317,
      "Ġinto": 1318,
      "selves": 1319,
      "LUS": 1320,
      "iv": 1321,
      "Ġbus": 1322,
      "Ġcousin": 1323,
      "imes": 1324,
      "Ġstre": 1325,
      "thy": 1326,
      "ESCA": 1327,
      "Ġhate": 1328,
      "Ġgracious": 1329,
      "Ġgentleman": 1330,
      "ĠKing": 1331,
      "Ġgrief": 1332,
      "ESCALUS": 1333,
      "den": 1334,
      "ling": 1335,
      "Ġmakes": 1336,
      "ars": 1337,
      "ode": 1338,
      "Hath": 1339,
      "Ġcho": 1340,
      "Ġprom": 1341,
      "Ġgr": 1342,
      "ENS": 1343,
      "ĠEng": 1344,
      "Ġwoman": 1345,
      "DUCH": 1346,
      "Ġturn": 1347,
      "Ġhum": 1348,
      "Ġuse": 1349,
      "Ġste": 1350,
      "alt": 1351,
      "Ġdost": 1352,
      "Ġcomfort": 1353,
      "ĠDuke": 1354,
      "Ġcoun": 1355,
      "Ġcourt": 1356,
      "Ġsleep": 1357,
      "urderer": 1358,
      "DUCHESS": 1359,
      "Lord": 1360,
      "ock": 1361,
      "Ġtalk": 1362,
      "itor": 1363,
      "Ġlay": 1364,
      "Ġover": 1365,
      "Ġbel": 1366,
      "Ġinst": 1367,
      "Ġstri": 1368,
      "ounds": 1369,
      "ĢâĶĢâĶĢâĶĢâĶĢâĶĢâĶĢâĶĢâĶ": 1370,
      "Ġmodel": 1371,
      "Ġbody": 1372,
      "morrow": 1373,
      "Ġser": 1374,
      "Ġwilt": 1375,
      "Ġbed": 1376,
      "Ġreven": 1377,
      "gelo": 1378,
      "ĠMarcius": 1379,
      "\",": 1380,
      "ere": 1381,
      "ience": 1382,
      "pen": 1383,
      "size": 1384,
      "Ġinde": 1385,
      "pect": 1386,
      "hold": 1387,
      "Ġfault": 1388,
      "ieve": 1389,
      "Ġprove": 1390,
      "Ġplay": 1391,
      "CAMIL": 1392,
      "ĠClarence": 1393,
      "eech": 1394,
      "CAMILLO": 1395,
      "God": 1396,
      "Ġdra": 1397,
      "omet": 1398,
      "Ġwel": 1399,
      "ade": 1400,
      "herd": 1401,
      "Ġvo": 1402,
      "Ġthank": 1403,
      "form": 1404,
      "Ġ->": 1405,
      "TENS": 1406,
      "cent": 1407,
      "mp": 1408,
      "Ġfight": 1409,
      "Ġfalse": 1410,
      "Ġcur": 1411,
      "Ġhas": 1412,
      "illain": 1413,
      "Ġonly": 1414,
      "Ġsword": 1415,
      "Ġadv": 1416,
      "ĠAngelo": 1417,
      "HORTENS": 1418,
      "Ġindeed": 1419,
      "FRI": 1420,
      "Sh": 1421,
      "Upon": 1422,
      "bs": 1423,
      "bed": 1424,
      "ily": 1425,
      "ms": 1426,
      "Ġsave": 1427,
      "Ġeven": 1428,
      "Ġreason": 1429,
      "Ġsovere": 1430,
      "Ġass": 1431,
      "Ġanother": 1432,
      "Ġgrave": 1433,
      "Provost": 1434,
      "Ġfellow": 1435,
      "HORTENSIO": 1436,
      "FRIAR": 1437,
      ",'": 1438,
      "PTIS": 1439,
      "pherd": 1440,
      "Ġ{": 1441,
      "hed": 1442,
      "ury": 1443,
      "BAPTIS": 1444,
      "Ġbanish": 1445,
      "Ġfortune": 1446,
      "BAPTISTA": 1447,
      "CUS": 1448,
      "COM": 1449,
      "TOL": 1450,
      "YCUS": 1451,
      "ler": 1452,
      "ove": 1453,
      "ĠâĶĤ": 1454,
      "ouch": 1455,
      "Ġmerc": 1456,
      "Ġmatter": 1457,
      "Ġwant": 1458,
      "any": 1459,
      "eter": 1460,
      "Ġsend": 1461,
      "Ġprison": 1462,
      "fect": 1463,
      "Ġrather": 1464,
      "AUTOL": 1465,
      "Ġcountry": 1466,
      "Ġdoubt": 1467,
      "COMINIUS": 1468,
      "AUTOLYCUS": 1469,
      ".'": 1470,
      "At": 1471,
      "Are": 1472,
      "Even": 1473,
      "More": 1474,
      "gain": 1475,
      "Ġtem": 1476,
      "Ġwish": 1477,
      "Ġyears": 1478,
      "Ġpers": 1479,
      "Ġgi": 1480,
      "Ġgre": 1481,
      "Ġrep": 1482,
      "Ġlies": 1483,
      "ARENCE": 1484,
      "vers": 1485,
      "Third": 1486,
      "Ġvis": 1487,
      "Ġval": 1488,
      "Ġvirt": 1489,
      "ague": 1490,
      "Ġimp": 1491,
      "Ġtruth": 1492,
      "On": 1493,
      "Would": 1494,
      "ior": 1495,
      "rance": 1496,
      "ĠBut": 1497,
      "Ġsound": 1498,
      "ons": 1499,
      "Ġdan": 1500,
      "usic": 1501,
      "Ġbreath": 1502,
      "Ġmaid": 1503,
      "Ġarms": 1504,
      "Ġdream": 1505,
      "CLARENCE": 1506,
      "(\"": 1507,
      "BEN": 1508,
      "MAR": 1509,
      "NOR": 1510,
      "by": 1511,
      "mod": 1512,
      "Ġsent": 1513,
      "Ġget": 1514,
      "Ġstra": 1515,
      "Ġsec": 1516,
      "Ġshalt": 1517,
      "VOLIO": 1518,
      "Clown": 1519,
      "Ġbusiness": 1520,
      "BENVOLIO": 1521,
      "),": 1522,
      "00": 1523,
      "Al": 1524,
      "MER": 1525,
      "PRO": 1526,
      "SPER": 1527,
      "ten": 1528,
      "Ġ*": 1529,
      "Ġsen": 1530,
      "Ġgener": 1531,
      "ram": 1532,
      "Ġholy": 1533,
      "Ġenough": 1534,
      "UMIO": 1535,
      "Ġcommand": 1536,
      "GRUMIO": 1537,
      "ches": 1538,
      "heads": 1539,
      "CUTIO": 1540,
      "PROSPER": 1541,
      "PROSPERO": 1542,
      "der": 1543,
      "use": 1544,
      "unt": 1545,
      "Ġwind": 1546,
      "Ġpity": 1547,
      "Ġbea": 1548,
      "Ġhang": 1549,
      "Ġstran": 1550,
      "Ġsold": 1551,
      "Ġsea": 1552,
      "ols": 1553,
      "Ġfare": 1554,
      "Ġproud": 1555,
      "ĠMurderer": 1556,
      "Ġswear": 1557,
      "Ġspir": 1558,
      "Ġbreak": 1559,
      "MERCUTIO": 1560,
      "Tensor": 1561,
      "apt": 1562,
      "ike": 1563,
      "Ġtend": 1564,
      "Ġwin": 1565,
      "erving": 1566,
      "Ġcond": 1567,
      "Ġdare": 1568,
      "Ġthree": 1569,
      "Ġlives": 1570,
      "ĠCome": 1571,
      "Ġvillain": 1572,
      "AUL": 1573,
      "ĠKate": 1574,
      "LUCENTIO": 1575,
      "Ġremem": 1576,
      "Ġnature": 1577,
      "Ġwelcome": 1578,
      "POM": 1579,
      "Tw": 1580,
      "sha": 1581,
      "ule": 1582,
      "Ġac": 1583,
      "ham": 1584,
      "Ġfree": 1585,
      "Ġnn": 1586,
      "Ġyield": 1587,
      "Ġwithin": 1588,
      "Ġkiss": 1589,
      "ester": 1590,
      "Ġmadam": 1591,
      "Ġsaw": 1592,
      "LAND": 1593,
      "Ġhappy": 1594,
      "Ġappe": 1595,
      "Ġgods": 1596,
      "Ġsovereign": 1597,
      "POMP": 1598,
      "FF": 1599,
      "PO": 1600,
      "PAUL": 1601,
      "ea": 1602,
      "ner": 1603,
      "tok": 1604,
      "Ġserv": 1605,
      "Ġsister": 1606,
      "Ġsomet": 1607,
      "Ġfoul": 1608,
      "Ġcity": 1609,
      "att": 1610,
      "ĠĠĠĠĠĠĠĠĠĠĠĠĠĠĠ": 1611,
      "ANT": 1612,
      "ump": 1613,
      "Ġmark": 1614,
      "Were": 1615,
      "like": 1616,
      "Ġbeseech": 1617,
      "PAULINA": 1618,
      "))": 1619,
      "YORK": 1620,
      "ient": 1621,
      "ery": 1622,
      "Ġch": 1623,
      "Ġden": 1624,
      "Ġoath": 1625,
      "ans": 1626,
      "Ġyours": 1627,
      "Ġsupp": 1628,
      "onder": 1629,
      "Ġleft": 1630,
      "Ġmeans": 1631,
      "gether": 1632,
      "ertain": 1633,
      "Ġsubject": 1634,
      "GREMIO": 1635,
      "gainst": 1636,
      "POMPEY": 1637,
      "ID": 1638,
      "NIA": 1639,
      "XEN": 1640,
      "balt": 1641,
      "ix": 1642,
      "oint": 1643,
      "pl": 1644,
      "ues": 1645,
      "ybalt": 1646,
      "Ġaw": 1647,
      "Ġmer": 1648,
      "Ġwhile": 1649,
      "Ġborn": 1650,
      "Ġclo": 1651,
      "Ġlam": 1652,
      "Ġthings": 1653,
      "Ġhorse": 1654,
      "anc": 1655,
      "Ġrequ": 1656,
      "LIXEN": 1657,
      "Ġbloody": 1658,
      "Ġlooks": 1659,
      "UMNIA": 1660,
      "Ġmaj": 1661,
      "ĠNor": 1662,
      "Ġcontent": 1663,
      "VOLUMNIA": 1664,
      "POLIXEN": 1665,
      "POLIXENES": 1666,
      "GON": 1667,
      "Her": 1668,
      "from": 1669,
      "und": 1670,
      "Ġsit": 1671,
      "rem": 1672,
      "Ġbri": 1673,
      "Ġfire": 1674,
      "enger": 1675,
      "Ġcra": 1676,
      "Ġyourself": 1677,
      "Ġloss": 1678,
      "INGS": 1679,
      "Ġfaith": 1680,
      "ĠServing": 1681,
      "Ġimport": 1682,
      "Ġtraitor": 1683,
      "STINGS": 1684,
      "centio": 1685,
      "ĠServingman": 1686,
      "RENCE": 1687,
      "Say": 1688,
      "broke": 1689,
      "Ġdru": 1690,
      "Ġbeat": 1691,
      "essenger": 1692,
      "ĠLAU": 1693,
      "Ġcommon": 1694,
      "udio": 1695,
      "HASTINGS": 1696,
      "Ġchildren": 1697,
      "Ġmistress": 1698,
      "ĠLAURENCE": 1699,
      "BY": 1700,
      "BER": 1701,
      "ac": 1702,
      "text": 1703,
      "Ġ3": 1704,
      "init": 1705,
      "ata": 1706,
      "ides": 1707,
      "Ġuncle": 1708,
      "Ġdays": 1709,
      "Therefore": 1710,
      "Ġtender": 1711,
      "Ġmajesty": 1712,
      "CLI": 1713,
      "Was": 1714,
      "dom": 1715,
      "Ġaff": 1716,
      "Ġsin": 1717,
      "Ġmon": 1718,
      "Ġnp": 1719,
      "Ġlate": 1720,
      "Ġtold": 1721,
      "Ġsoon": 1722,
      "Ġseen": 1723,
      "iew": 1724,
      "UMBER": 1725,
      "THUMBER": 1726,
      "Ġwoe": 1727,
      "Look": 1728,
      "ĠEngland": 1729,
      "NORTHUMBER": 1730,
      "CLIFF": 1731,
      "NORTHUMBERLAND": 1732,
      "Take": 1733,
      "ax": 1734,
      "cess": 1735,
      "lay": 1736,
      "ning": 1737,
      "up": 1738,
      "ze": 1739,
      "hes": 1740,
      "Ġsight": 1741,
      "idow": 1742,
      "Ġdeep": 1743,
      "Ġdoes": 1744,
      "Ġsure": 1745,
      "----": 1746,
      "Though": 1747,
      "Ġmercy": 1748,
      "Ġfarewell": 1749,
      "aim": 1750,
      "ca": 1751,
      "chan": 1752,
      "ial": 1753,
      "oke": 1754,
      "pare": 1755,
      "ĠAN": 1756,
      "Ġ**": 1757,
      "ĢĶ": 1758,
      "Ġsad": 1759,
      "Ġmet": 1760,
      "rel": 1761,
      "ones": 1762,
      "Ġgrow": 1763,
      "ters": 1764,
      "oling": 1765,
      "Ġgold": 1766,
      "unes": 1767,
      "Ġfoot": 1768,
      "Ġmarry": 1769,
      "Ġdisc": 1770,
      "Ġheavy": 1771,
      "Ġwarrant": 1772,
      "ĠJul": 1773,
      "Ġpurpose": 1774,
      "ĠâĢĶ": 1775,
      "Ġthrough": 1776,
      "Ġdanger": 1777,
      "ĠANNE": 1778,
      "Ah": 1779,
      "Did": 1780,
      "Give": 1781,
      "One": 1782,
      "PR": 1783,
      "av": 1784,
      "Ġill": 1785,
      "Ġsil": 1786,
      "itt": 1787,
      "Ġnurse": 1788,
      "Ġtogether": 1789,
      "ours": 1790,
      "enty": 1791,
      "Ġreport": 1792,
      "ask": 1793,
      "Ġask": 1794,
      "iff": 1795,
      "ifford": 1796,
      "Ġnear": 1797,
      "ignior": 1798,
      "CAPULET": 1799,
      "INCE": 1800,
      "Ġdeser": 1801,
      "Ġcold": 1802,
      "PRINCE": 1803,
      "mer": 1804,
      "ring": 1805,
      "Ġtimes": 1806,
      "outh": 1807,
      "ined": 1808,
      "oriol": 1809,
      "ced": 1810,
      "ets": 1811,
      "Ġwithout": 1812,
      "Ġlost": 1813,
      "ush": 1814,
      "arewell": 1815,
      "Ġsays": 1816,
      "Ġpluck": 1817,
      "ments": 1818,
      "Ġliege": 1819,
      "kenizer": 1820,
      "Ġbelieve": 1821,
      "Ġspirit": 1822,
      "olingbroke": 1823,
      "sh": 1824,
      "so": 1825,
      "torch": 1826,
      "we": 1827,
      "ĠHe": 1828,
      "Ġair": 1829,
      "Ġage": 1830,
      "Ġwat": 1831,
      "Ġlear": 1832,
      "Ġtok": 1833,
      "Ġpar": 1834,
      "Ġheir": 1835,
      "cept": 1836,
      "ains": 1837,
      "ift": 1838,
      "Ġthyself": 1839,
      "ĠMont": 1840,
      "ĠBolingbroke": 1841,
      "Whose": 1842,
      "================================": 1843,
      "Ġrun": 1844,
      "Ġstrange": 1845,
      "ALO": 1846,
      "Had": 1847,
      "IZ": 1848,
      "Wh": 1849,
      "code": 1850,
      "Ġord": 1851,
      "Ġcry": 1852,
      "Ġopen": 1853,
      "Ġgrant": 1854,
      "ution": 1855,
      "ality": 1856,
      "ION": 1857,
      "Ġsuff": 1858,
      "aking": 1859,
      "Ġprint": 1860,
      "Ġpoint": 1861,
      "Ġears": 1862,
      "Ġbetw": 1863,
      "Ġhaste": 1864,
      "class": 1865,
      "ĠClifford": 1866,
      "Ġhard": 1867,
      "Ġentreat": 1868,
      "Ġdevil": 1869,
      "Ġground": 1870,
      "Should": 1871,
      "Ġperson": 1872,
      "ĠJuliet": 1873,
      "Like": 1874,
      "aid": 1875,
      "ixt": 1876,
      "night": 1877,
      "Ġmur": 1878,
      "Ġfly": 1879,
      "arm": 1880,
      "Ġtoward": 1881,
      "Ġpast": 1882,
      "oman": 1883,
      "Ġkne": 1884,
      "ĠLu": 1885,
      "Ġfriar": 1886,
      "Ġslain": 1887,
      "ĠFrance": 1888,
      "Ġjustice": 1889,
      "Ġstraight": 1890,
      "Ġremember": 1891,
      "APULET": 1892,
      "FL": 1893,
      "FID": 1894,
      "May": 1895,
      "Some": 1896,
      "aves": 1897,
      "vent": 1898,
      "with": 1899,
      "Ġty": 1900,
      "ina": 1901,
      "hal": 1902,
      "Ġcurse": 1903,
      "Ġread": 1904,
      "These": 1905,
      "rue": 1906,
      "ĠCAPULET": 1907,
      "ORIZ": 1908,
      "ured": 1909,
      "Ġworthy": 1910,
      "Ġquick": 1911,
      "umber": 1912,
      "entleman": 1913,
      "AUFID": 1914,
      "Ġtrust": 1915,
      "Ġbold": 1916,
      "Ġalone": 1917,
      "Ġdesire": 1918,
      "ched": 1919,
      "Ġstrong": 1920,
      "Ġinstru": 1921,
      "Ġbeauty": 1922,
      "Ġservice": 1923,
      "FLORIZ": 1924,
      "AUFIDIUS": 1925,
      "FLORIZEL": 1926,
      "Can": 1927,
      "Com": 1928,
      "SE": 1929,
      "Tell": 1930,
      "VER": 1931,
      "gu": 1932,
      "ible": 1933,
      "ship": 1934,
      "uff": 1935,
      "Ġtouch": 1936,
      "Ġbro": 1937,
      "Ġfast": 1938,
      "Ġfound": 1939,
      "Ġfield": 1940,
      "ithe": 1941,
      "ĠIs": 1942,
      "Ġinf": 1943,
      "ceed": 1944,
      "adam": 1945,
      "Ġstep": 1946,
      "Ġready": 1947,
      "cks": 1948,
      "aunt": 1949,
      "Ġbrought": 1950,
      "Ġwork": 1951,
      "Ġquar": 1952,
      "Ġposs": 1953,
      "ĠTybalt": 1954,
      "Ġattend": 1955,
      "Ġenemy": 1956,
      "Ġrevenge": 1957,
      "Ġgeneral": 1958,
      "!'": 1959,
      "ĠHere": 1960,
      "Ġmin": 1961,
      "ities": 1962,
      "enator": 1963,
      "Ġcor": 1964,
      "Ġduty": 1965,
      "ads": 1966,
      "Ġitself": 1967,
      "amill": 1968,
      "Ġlose": 1969,
      "Ġnob": 1970,
      "ĠSenator": 1971,
      "Ġcanst": 1972,
      "Ġknows": 1973,
      "inks": 1974,
      "Ġprof": 1975,
      "Ġmarried": 1976,
      "Ġexec": 1977,
      "Ġwoo": 1978,
      "Ġthoughts": 1979,
      "Ġcharge": 1980,
      "Against": 1981,
      "Bec": 1982,
      "CIUS": 1983,
      "OW": 1984,
      "RICHARD": 1985,
      "cester": 1986,
      "ever": 1987,
      "lou": 1988,
      "path": 1989,
      "pos": 1990,
      "sue": 1991,
      "ua": 1992,
      "ub": 1993,
      "val": 1994,
      "Ġ0": 1995,
      "ĠYou": 1996,
      "Ġmorn": 1997,
      "Ġhalf": 1998,
      "Ġmel": 1999,
      "Ġwear": 2000,
      "riage": 2001,
      "rain": 2002,
      "Ġdeed": 2003,
      "Ġdeli": 2004,
      "Ġbos": 2005,
      "Ġtwenty": 2006,
      "Ġstands": 2007,
      "BAST": 2008,
      "itizens": 2009,
      "Shepherd": 2010,
      "Ġhours": 2011,
      "Ġconfess": 2012,
      "Ġstreng": 2013,
      "Ġlearn": 2014,
      "SEBAST": 2015,
      "ithee": 2016,
      "SEBASTIAN": 2017,
      "DEL": 2018,
      "Ha": 2019,
      "OP": 2020,
      "now": 2021,
      "Ġbat": 2022,
      "Ġfur": 2023,
      "Ġfore": 2024,
      "Ġcar": 2025,
      "Ġcut": 2026,
      "Ġdiv": 2027,
      "Ġpost": 2028,
      "Ġyouth": 2029,
      "Ġhell": 2030,
      "ingham": 2031,
      "Ġforward": 2032,
      "Ġemb": 2033,
      "peak": 2034,
      "Thus": 2035,
      "ĠRi": 2036,
      "olk": 2037,
      "ortal": 2038,
      "fection": 2039,
      "ĠHast": 2040,
      "Ġjud": 2041,
      "Ġfearful": 2042,
      "rans": 2043,
      "Config": 2044,
      "Ġcounsel": 2045,
      "amillo": 2046,
      "BION": 2047,
      "Till": 2048,
      "ding": 2049,
      "most": 2050,
      "ts": 2051,
      "ĠThe": 2052,
      "Ġter": 2053,
      "Ġten": 2054,
      "Ġsk": 2055,
      "Ġwret": 2056,
      "Ġdist": 2057,
      "Ġbehold": 2058,
      "Ġeach": 2059,
      "Ġreg": 2060,
      "ĠCoriol": 2061,
      "Ġspeed": 2062,
      "Ġhearts": 2063,
      "Ġmarriage": 2064,
      "Ġdesp": 2065,
      "ĠClaudio": 2066,
      "Ġresol": 2067,
      "Ġcompany": 2068,
      "uckingham": 2069,
      "MARCIUS": 2070,
      "ĠMontague": 2071,
      "loucester": 2072,
      "Ġbosom": 2073,
      "DELLO": 2074,
      "BIONDELLO": 2075,
      "Away": 2076,
      "DA": 2077,
      "DIO": 2078,
      "MON": 2079,
      "Madam": 2080,
      "folk": 2081,
      "ges": 2082,
      "ging": 2083,
      "mel": 2084,
      "Ġtit": 2085,
      "Ġtale": 2086,
      "Ġact": 2087,
      "ench": 2088,
      "Ġdam": 2089,
      "Ġye": 2090,
      "alm": 2091,
      "rah": 2092,
      "Ġshort": 2093,
      "Ġknown": 2094,
      "ĠBuckingham": 2095,
      "Ġran": 2096,
      "Ġseek": 2097,
      "ages": 2098,
      "ĠNone": 2099,
      "Ġmock": 2100,
      "Ġharm": 2101,
      "Ġhighness": 2102,
      "\"\"\"": 2103,
      "Ġstrike": 2104,
      "Ġserve": 2105,
      "Ġmurder": 2106,
      "ĠHastings": 2107,
      "Farewell": 2108,
      "HER": 2109,
      "eep": 2110,
      "hood": 2111,
      "âĢ": 2112,
      "Ġve": 2113,
      "Ġsat": 2114,
      "Ġsing": 2115,
      "Ġside": 2116,
      "Ġmusic": 2117,
      "Ġwhi": 2118,
      "Ġwatch": 2119,
      "orm": 2120,
      "ision": 2121,
      "ished": 2122,
      "Ġdish": 2123,
      "Ġpra": 2124,
      "Ġloving": 2125,
      "ander": 2126,
      "Ġsuit": 2127,
      "Ġnext": 2128,
      "ils": 2129,
      "ERLE": 2130,
      "ĠAUM": 2131,
      "ONIO": 2132,
      "Ġhonest": 2133,
      "Ġheavens": 2134,
      "Ġenter": 2135,
      "Ġcloud": 2136,
      "Ġtrib": 2137,
      "Ġdraw": 2138,
      "Ġvoices": 2139,
      "Ġsomething": 2140,
      "ANTONIO": 2141,
      "Ġstrength": 2142,
      "âĢĵ": 2143,
      "ĠAUMERLE": 2144,
      "Marry": 2145,
      "Pray": 2146,
      "See": 2147,
      "ZALO": 2148,
      "cher": 2149,
      "fid": 2150,
      "par": 2151,
      "patch": 2152,
      "ting": 2153,
      "Ġsake": 2154,
      "Ġwast": 2155,
      "Ġwonder": 2156,
      "Ġwidow": 2157,
      "Ġbit": 2158,
      "Ġbound": 2159,
      "Ġdro": 2160,
      "Ġstir": 2161,
      "Ġsoft": 2162,
      "usion": 2163,
      "ĠCap": 2164,
      "ĠGentleman": 2165,
      "ĠGloucester": 2166,
      "ĠLanc": 2167,
      "ally": 2168,
      "Ġdidst": 2169,
      "Ġgentlemen": 2170,
      "Ġwomen": 2171,
      "ethinks": 2172,
      "Ġchange": 2173,
      "Ġenemies": 2174,
      "GONZALO": 2175,
      "ĠLancaster": 2176,
      "Unt": 2177,
      "iers": 2178,
      "ives": 2179,
      "ns": 2180,
      "ĠTh": 2181,
      "Ġaudio": 2182,
      "Ġsign": 2183,
      "rew": 2184,
      "Ġbreat": 2185,
      "Ġbase": 2186,
      "Ġpie": 2187,
      "Ġpale": 2188,
      "str": 2189,
      "Ġgates": 2190,
      "Ġinc": 2191,
      "import": 2192,
      "race": 2193,
      "Ġdep": 2194,
      "ĠCamillo": 2195,
      "Ġknew": 2196,
      "Ġcoming": 2197,
      "Ġthanks": 2198,
      "Ġenc": 2199,
      "Ġpret": 2200,
      "Ġpleasure": 2201,
      "Ġsouls": 2202,
      "ianca": 2203,
      "Ġfeel": 2204,
      "Ġcourse": 2205,
      "Ġwithal": 2206,
      "Ġchee": 2207,
      "Ġbrave": 2208,
      "ceived": 2209,
      "Ġorder": 2210,
      "Ġtitle": 2211,
      "SON": 2212,
      "az": 2213,
      "ech": 2214,
      "fter": 2215,
      "oin": 2216,
      "pr": 2217,
      "tensor": 2218,
      "view": 2219,
      "you": 2220,
      "Ġ__": 2221,
      "Ġsame": 2222,
      "ready": 2223,
      "Ġbur": 2224,
      "Ġfit": 2225,
      "Ġfie": 2226,
      "oward": 2227,
      "Ġgar": 2228,
      "Ġbecome": 2229,
      "image": 2230,
      "etch": 2231,
      "etru": 2232,
      "cho": 2233,
      "Ġforg": 2234,
      "Ġweak": 2235,
      "Ġeither": 2236,
      "alth": 2237,
      "ash": 2238,
      "Ġlips": 2239,
      "ustom": 2240,
      "Ġjest": 2241,
      "Ġplain": 2242,
      "AUDIO": 2243,
      "Ġabs": 2244,
      "claim": 2245,
      "Ġtrain": 2246,
      "Ġgrie": 2247,
      "CLAUDIO": 2248,
      "Ġpriv": 2249,
      "MIONE": 2250,
      "ĠNorfolk": 2251,
      "CLIFFORD": 2252,
      "Ġsuffer": 2253,
      "Ġdeliver": 2254,
      "HERMIONE": 2255,
      "AM": 2256,
      "EDWARD": 2257,
      "LORD": 2258,
      "Most": 2259,
      "Sw": 2260,
      "True": 2261,
      "lst": 2262,
      "lic": 2263,
      "sc": 2264,
      "uous": 2265,
      "ufid": 2266,
      "Ġsick": 2267,
      "Ġwis": 2268,
      "Ġwed": 2269,
      "Ġwall": 2270,
      "isf": 2271,
      "Ġcast": 2272,
      "Ġtook": 2273,
      "ĠIf": 2274,
      "irth": 2275,
      "chio": 2276,
      "Ġforb": 2277,
      "Ġforget": 2278,
      "Ġev": 2279,
      "ries": 2280,
      "ions": 2281,
      "rust": 2282,
      "Ġven": 2283,
      "Ġthemselves": 2284,
      "ĠBianca": 2285,
      "Ġworse": 2286,
      "ĠPom": 2287,
      "Ġpoison": 2288,
      "def": 2289,
      "Ġalong": 2290,
      "Ġalready": 2291,
      "Ġbreast": 2292,
      "ranio": 2293,
      "Ġrich": 2294,
      "Ġconsul": 2295,
      "RANDA": 2296,
      "MIRANDA": 2297,
      "Ġcheer": 2298,
      "twas": 2299,
      "twere": 2300,
      "ocab": 2301,
      "Ġpatience": 2302,
      "Ġmerry": 2303,
      "etruchio": 2304,
      "ufidius": 2305,
      ":**": 2306,
      "AS": 2307,
      "HN": 2308,
      "IR": 2309,
      "Messenger": 2310,
      "OHN": 2311,
      "Re": 2312,
      "Servant": 2313,
      "ex": 2314,
      "gr": 2315,
      "hr": 2316,
      "mond": 2317,
      "max": 2318,
      "no": 2319,
      "rink": 2320,
      "tent": 2321,
      "used": 2322,
      "ĠTo": 2323,
      "Ġmouth": 2324,
      "rence": 2325,
      "Ġbad": 2326,
      "Ġfour": 2327,
      "Ġlen": 2328,
      "Ġpay": 2329,
      "stand": 2330,
      "Ġgave": 2331,
      "Ġissue": 2332,
      "Ġred": 2333,
      "Ġliber": 2334,
      "Ġsum": 2335,
      "rows": 2336,
      "Ġbook": 2337,
      "Ġoffice": 2338,
      "Ġext": 2339,
      "Being": 2340,
      "Ġmove": 2341,
      "awd": 2342,
      "Ġgiven": 2343,
      "Ġvirtue": 2344,
      "rames": 2345,
      "Ġbetween": 2346,
      "ĠHereford": 2347,
      "Ġmorning": 2348,
      "Ġbattle": 2349,
      "Ġfurther": 2350,
      "Make": 2351,
      "NT": 2352,
      "Since": 2353,
      "cy": 2354,
      "gry": 2355,
      "ires": 2356,
      "kes": 2357,
      "mber": 2358,
      "nk": 2359,
      "she": 2360,
      "ĠFor": 2361,
      "Ġsur": 2362,
      "Ġwise": 2363,
      "read": 2364,
      "Ġburn": 2365,
      "orge": 2366,
      "Ġfrown": 2367,
      "Ġdire": 2368,
      "esh": 2369,
      "Ġlad": 2370,
      "ots": 2371,
      "ats": 2372,
      "anus": 2373,
      "Ġgro": 2374,
      "irm": 2375,
      "chmond": 2376,
      "Ġsto": 2377,
      "Ġrec": 2378,
      "right": 2379,
      "Ġsucc": 2380,
      "icer": 2381,
      "empt": 2382,
      "elcome": 2383,
      "ĠSignior": 2384,
      "Ġblack": 2385,
      "Ġsworn": 2386,
      "Ġgoes": 2387,
      "loat": 2388,
      "Ġfoe": 2389,
      "ĠTower": 2390,
      "Ġsons": 2391,
      "Before": 2392,
      "Ġheads": 2393,
      "Ġwrit": 2394,
      "Ġtrou": 2395,
      "Ġbegg": 2396,
      "Ġbegin": 2397,
      "Ġconsent": 2398,
      "Ġfeast": 2399,
      "Ġtemp": 2400,
      "Ġsoldiers": 2401,
      "Ġrequest": 2402,
      "ĠLucentio": 2403,
      "Ġquarrel": 2404,
      "Ġsatisf": 2405,
      "Call": 2406,
      "Must": 2407,
      "RA": 2408,
      "Such": 2409,
      "gen": 2410,
      "gare": 2411,
      "oll": 2412,
      "su": 2413,
      "ses": 2414,
      "ures": 2415,
      "ys": 2416,
      "Ġta": 2417,
      "hem": 2418,
      "Ġservant": 2419,
      "oun": 2420,
      "Ġwounds": 2421,
      "rest": 2422,
      "Ġble": 2423,
      "Ġcr": 2424,
      "Ġcase": 2425,
      "Ġcross": 2426,
      "Ġdark": 2427,
      "Ġlat": 2428,
      "aris": 2429,
      "Ġthri": 2430,
      "ated": 2431,
      "owers": 2432,
      "Ġund": 2433,
      "vern": 2434,
      "amp": 2435,
      "Ġloves": 2436,
      "Ġbless": 2437,
      "Ġthence": 2438,
      "Ġworth": 2439,
      "ĠAufidius": 2440,
      "Ġhop": 2441,
      "Ġprov": 2442,
      "CATES": 2443,
      "ired": 2444,
      "fft": 2445,
      "Ġpresence": 2446,
      "__(": 2447,
      "Unless": 2448,
      "Ġvoice": 2449,
      "model": 2450,
      "Alas": 2451,
      "Ġclose": 2452,
      "Ġdangerous": 2453,
      "Because": 2454,
      "garet": 2455,
      "CATESBY": 2456,
      "=\"": 2457,
      "LY": 2458,
      "ait": 2459,
      "dd": 2460,
      "ip": 2461,
      "lish": 2462,
      "that": 2463,
      "Ġest": 2464,
      "Ġsho": 2465,
      "Ġsigh": 2466,
      "Ġbar": 2467,
      "ona": 2468,
      "onour": 2469,
      "Ġcol": 2470,
      "Ġdu": 2471,
      "Ġdim": 2472,
      "Ġlab": 2473,
      "Ġhot": 2474,
      "ĠInd": 2475,
      "Ġgot": 2476,
      "Ġinter": 2477,
      "celer": 2478,
      "Ġneither": 2479,
      "Ġvict": 2480,
      "aked": 2481,
      "ĠSt": 2482,
      "ĠSir": 2483,
      "ĠLond": 2484,
      "Ġbride": 2485,
      "ĠVols": 2486,
      "umb": 2487,
      "Ġspoke": 2488,
      "cient": 2489,
      "Ġsafe": 2490,
      "Ġexp": 2491,
      "Ġwars": 2492,
      "Ġflatter": 2493,
      "Ġmax": 2494,
      "Ġrespect": 2495,
      "Ġmighty": 2496,
      "Ġappro": 2497,
      "Ġdread": 2498,
      "Ġthrone": 2499,
      "Ġbuy": 2500,
      "Ġvisit": 2501,
      "Ġsense": 2502,
      "aptist": 2503,
      "token": 2504,
      "Ġdeny": 2505,
      "Ġbrief": 2506,
      "Ġwater": 2507,
      "ĠLondon": 2508,
      "Both": 2509,
      "BIAN": 2510,
      "JOHN": 2511,
      "Lest": 2512,
      "OT": 2513,
      "Rome": 2514,
      "REY": 2515,
      "Yes": 2516,
      "])": 2517,
      "dden": 2518,
      "eorge": 2519,
      "iant": 2520,
      "mand": 2521,
      "name": 2522,
      "ught": 2523,
      "ĠThis": 2524,
      "Ġmal": 2525,
      "Ġbow": 2526,
      "Ġbab": 2527,
      "Ġcreat": 2528,
      "Ġtown": 2529,
      "Ġtokenizer": 2530,
      "Ġhur": 2531,
      "Ġoften": 2532,
      "Ġhaving": 2533,
      "ided": 2534,
      "Ġdeeds": 2535,
      "Ġsudden": 2536,
      "Ġancient": 2537,
      "Ġvow": 2538,
      "iles": 2539,
      "Ġfav": 2540,
      "Ġprot": 2541,
      "oney": 2542,
      "ĠGeorge": 2543,
      "ĠBaptist": 2544,
      "Ġloved": 2545,
      "Ġkings": 2546,
      "Ġspeech": 2547,
      "Ġworship": 2548,
      "LIA": 2549,
      "ume": 2550,
      "ĠParis": 2551,
      "type": 2552,
      "ainted": 2553,
      "BAL": 2554,
      "ĠMargaret": 2555,
      "BRA": 2556,
      "Ġprincely": 2557,
      "Ġchamber": 2558,
      "Ġseems": 2559,
      "ĠSIAConfig": 2560,
      "shape": 2561,
      "Whom": 2562,
      "VERS": 2563,
      "ĠRichmond": 2564,
      "Ġbitter": 2565,
      "celerator": 2566,
      "BIANCA": 2567,
      "([": 2568,
      "BOW": 2569,
      "Speak": 2570,
      "Welcome": 2571,
      "nown": 2572,
      "rt": 2573,
      "ĠThou": 2574,
      "Ġte": 2575,
      "Ġmortal": 2576,
      "Ġbawd": 2577,
      "Ġfres": 2578,
      "Ġfetch": 2579,
      "Ġcap": 2580,
      "Ġcoward": 2581,
      "essed": 2582,
      "Ġlim": 2583,
      "Ġlist": 2584,
      "args": 2585,
      "Ġhid": 2586,
      "Ġpen": 2587,
      "vel": 2588,
      "otion": 2589,
      "als": 2590,
      "urp": 2591,
      "urch": 2592,
      "Ġknock": 2593,
      "antage": 2594,
      "emn": 2595,
      "ĠSaint": 2596,
      "ĠServant": 2597,
      "ĠGAU": 2598,
      "ĠLady": 2599,
      "Ġkingdom": 2600,
      "Ġlead": 2601,
      "Ġagent": 2602,
      "ELBOW": 2603,
      "Ġsac": 2604,
      "Ġscorn": 2605,
      "Ġrage": 2606,
      "Ġwitness": 2607,
      "Ġsmall": 2608,
      "RIVERS": 2609,
      "Ġpatient": 2610,
      "proj": 2611,
      "Ġpromise": 2612,
      "Ġvaliant": 2613,
      "Ġappear": 2614,
      "Ġlament": 2615,
      "ĠIsab": 2616,
      "Ġsuccess": 2617,
      "ĠBaptista": 2618,
      "ĠGAUNT": 2619,
      "12": 2620,
      "Bes": 2621,
      "Ere": 2622,
      "GUE": 2623,
      "Hold": 2624,
      "LAR": 2625,
      "Mod": 2626,
      "TY": 2627,
      "],": 2628,
      "ault": 2629,
      "bit": 2630,
      "oss": 2631,
      "sper": 2632,
      "will": 2633,
      "xford": 2634,
      "Ġ[": 2635,
      "Ġid": 2636,
      "ĠKING": 2637,
      "Ġign": 2638,
      "Ġaction": 2639,
      "Ġsr": 2640,
      "ines": 2641,
      "Ġmid": 2642,
      "Ġfra": 2643,
      "Ġcle": 2644,
      "Ġdest": 2645,
      "Ġdrink": 2646,
      "Ġlack": 2647,
      "Ġthrow": 2648,
      "Ġopp": 2649,
      "Ġpath": 2650,
      "Ġgall": 2651,
      "Ġins": 2652,
      "let": 2653,
      "Ġform": 2654,
      "Ġeat": 2655,
      "Ġkins": 2656,
      "Their": 2657,
      "ĠChr": 2658,
      "Ġviol": 2659,
      "ilty": 2660,
      "aken": 2661,
      "Ġprin": 2662,
      "Ġprithee": 2663,
      "ĠMy": 2664,
      "Ġwash": 2665,
      "ortens": 2666,
      "Ġleast": 2667,
      "ument": 2668,
      "ĠPetruchio": 2669,
      "ption": 2670,
      "ĠTranio": 2671,
      "Ġoffer": 2672,
      "Ġflesh": 2673,
      "Ġprepare": 2674,
      "Ġslave": 2675,
      "Ġprayers": 2676,
      "Ġmoon": 2677,
      "Ġdefend": 2678,
      "Ġcompl": 2679,
      "TAGUE": 2680,
      "Ġtriump": 2681,
      "bey": 2682,
      "itted": 2683,
      "Ġtribunes": 2684,
      "Romeo": 2685,
      "ĠChrist": 2686,
      "ortensio": 2687,
      "<|": 2688,
      "DI": 2689,
      "Pe": 2690,
      "Yea": 2691,
      "aven": 2692,
      "ban": 2693,
      "but": 2694,
      "joy": 2695,
      "oor": 2696,
      "ohem": 2697,
      "ror": 2698,
      "ual": 2699,
      "vest": 2700,
      "|>": 2701,
      "}\")": 2702,
      "Ġ==": 2703,
      "Ġsort": 2704,
      "rent": 2705,
      "Ġfam": 2706,
      "Ġfine": 2707,
      "Ġnay": 2708,
      "arg": 2709,
      "Ġthither": 2710,
      "Ġhide": 2711,
      "athar": 2712,
      "Ġbeast": 2713,
      "ley": 2714,
      "edge": 2715,
      "Ġem": 2716,
      "Ġstru": 2717,
      "Ġreb": 2718,
      "raw": 2719,
      "ural": 2720,
      "pey": 2721,
      "Ġnoise": 2722,
      "rum": 2723,
      "thumber": 2724,
      "asters": 2725,
      "host": 2726,
      "feit": 2727,
      "ference": 2728,
      "Ġunk": 2729,
      "ĠPl": 2730,
      "lock": 2731,
      "Ġalmost": 2732,
      "ully": 2733,
      "Ġscar": 2734,
      "Ġpresently": 2735,
      "Ġfaults": 2736,
      "Ġsecret": 2737,
      "Ġaccelerator": 2738,
      "Ġsubjects": 2739,
      "Ġpossess": 2740,
      "Ġdepart": 2741,
      "atharina": 2742,
      "thumberland": 2743,
      "En": 2744,
      "GI": 2745,
      "IEL": 2746,
      "VIR": 2747,
      "Whi": 2748,
      "aul": 2749,
      "fg": 2750,
      "hind": 2751,
      "ls": 2752,
      "np": 2753,
      "ying": 2754,
      "your": 2755,
      "Ġ5": 2756,
      "Ġut": 2757,
      "Ġtear": 2758,
      "Ġwound": 2759,
      "Ġwert": 2760,
      "Ġben": 2761,
      "Ġbirth": 2762,
      "Ġfill": 2763,
      "Ġfond": 2764,
      "Ġcertain": 2765,
      "arl": 2766,
      "Ġpit": 2767,
      "Ġpain": 2768,
      "inger": 2769,
      "ingly": 2770,
      "seq": 2771,
      "Ġbec": 2772,
      "Ġind": 2773,
      "Ġeas": 2774,
      "ider": 2775,
      "Ġliving": 2776,
      "ames": 2777,
      "pend": 2778,
      "Ġsuper": 2779,
      "though": 2780,
      "antag": 2781,
      "Ġgoodly": 2782,
      "Ġwhence": 2783,
      "ĠGREY": 2784,
      "ends": 2785,
      "ended": 2786,
      "Ġusurp": 2787,
      "Ġprop": 2788,
      "cience": 2789,
      "Ġtrump": 2790,
      "Ġhearing": 2791,
      "perate": 2792,
      "Ġslaughter": 2793,
      "Ġperform": 2794,
      "tool": 2795,
      "Stay": 2796,
      "Stand": 2797,
      "ledge": 2798,
      "Ġchance": 2799,
      "PERDI": 2800,
      "Ġvirtuous": 2801,
      "Ġquickly": 2802,
      "MONTAGUE": 2803,
      "Ġdamn": 2804,
      "ohemia": 2805,
      "GILIA": 2806,
      "VIRGILIA": 2807,
      "PERDITA": 2808,
      "Ab": 2809,
      "Doth": 2810,
      "Fa": 2811,
      "SET": 2812,
      "SLY": 2813,
      "gg": 2814,
      "iest": 2815,
      "mon": 2816,
      "noc": 2817,
      "over": 2818,
      "pre": 2819,
      "Ġ4": 2820,
      "Ġ================================": 2821,
      "Ġay": 2822,
      "Ġshi": 2823,
      "input": 2824,
      "Ġmatch": 2825,
      "Ġmild": 2826,
      "Ġwild": 2827,
      "isure": 2828,
      "Ġfre": 2829,
      "Ġfier": 2830,
      "arn": 2831,
      "Ġyear": 2832,
      "set": 2833,
      "Ġinj": 2834,
      "lect": 2835,
      "edant": 2836,
      "Ġnote": 2837,
      "Ġur": 2838,
      "Ġseq": 2839,
      "Ġshad": 2840,
      "Think": 2841,
      "Ġangry": 2842,
      "astard": 2843,
      "Ġneeds": 2844,
      "ular": 2845,
      "Ġknee": 2846,
      "ication": 2847,
      "ĠGre": 2848,
      "Ġblows": 2849,
      "Ġswarm": 2850,
      "ĠOxford": 2851,
      "Ġquiet": 2852,
      "ĠPaul": 2853,
      "============": 2854,
      "Ġhadst": 2855,
      "Ġoffence": 2856,
      "Ġadd": 2857,
      "Ġpleas": 2858,
      "force": 2859,
      "============================": 2860,
      "Ġaffection": 2861,
      "ĠĠĠĠĠĠĠĠĠĠĠĠĠĠĠĠ": 2862,
      "new": 2863,
      "Ġslew": 2864,
      "Ġguilty": 2865,
      "IANA": 2866,
      "Ġlawful": 2867,
      "Ġglad": 2868,
      "Ġweeping": 2869,
      "ĢâĶĢâĶĢâĶĢâĶĢâĶĢâĶĢâĶĢâĶĢâĶĢâĶĢâĶĢâĶĢâĶĢâĶĢâĶĢâĶ": 2870,
      "MARIANA": 2871,
      "Ġsoldier": 2872,
      "Ġawhile": 2873,
      "Ġdeserved": 2874,
      "Ġexecution": 2875,
      "ĠCoriolanus": 2876,
      "Ġpretty": 2877,
      "ĠPompey": 2878,
      "Peace": 2879,
      "Ġ============================================================": 2880,
      "02": 2881,
      "False": 2882,
      "Le": 2883,
      "Mar": 2884,
      "Master": 2885,
      "Pr": 2886,
      "PAR": 2887,
      "VINCENTIO": 2888,
      "awn": 2889,
      "mit": 2890,
      "mage": 2891,
      "son": 2892,
      "vol": 2893,
      "zen": 2894,
      "Ġmed": 2895,
      "Ġwalk": 2896,
      "Ġfled": 2897,
      "Ġcustom": 2898,
      "aring": 2899,
      "Ġtop": 2900,
      "Ġob": 2901,
      "Ġocc": 2902,
      "atase": 2903,
      "Ġinnoc": 2904,
      "Ġhap": 2905,
      "Ġmeasure": 2906,
      "Ġforsw": 2907,
      "adua": 2908,
      "Ġref": 2909,
      "Ġreign": 2910,
      "rand": 2911,
      "Ġdoom": 2912,
      "Ġneck": 2913,
      "Ġourselves": 2914,
      "ĠCa": 2915,
      "Ġshows": 2916,
      "Ġblow": 2917,
      "Ġwouldst": 2918,
      "Ġgovern": 2919,
      "Ġletters": 2920,
      "Ġleisure": 2921,
      "Ġworst": 2922,
      "log": 2923,
      "Ġrough": 2924,
      "Ġspeaks": 2925,
      "Ġmarch": 2926,
      "Ġabove": 2927,
      "ĠKatharina": 2928,
      "ighb": 2929,
      "Ġgreater": 2930,
      "Ġcalls": 2931,
      "then": 2932,
      "().": 2933,
      "Ġtreason": 2934,
      "ĠEnglish": 2935,
      "Ġbanishment": 2936,
      "Ġsecond": 2937,
      "ointed": 2938,
      "remio": 2939,
      "Ġtokens": 2940,
      "Ġkneel": 2941,
      "Ġdishonour": 2942,
      "Ġclouds": 2943,
      "Ġbreathe": 2944,
      "Ġliberty": 2945,
      "Ġladies": 2946,
      "Ġtrouble": 2947,
      "ounter": 2948,
      "Ġfavour": 2949,
      "ĠIsabel": 2950,
      "Module": 2951,
      "rumio": 2952,
      "antagen": 2953,
      "PARIS": 2954,
      ":'": 2955,
      "EX": 2956,
      "Int": 2957,
      "Me": 2958,
      "Out": 2959,
      "While": 2960,
      "acle": 2961,
      "bl": 2962,
      "bly": 2963,
      "dle": 2964,
      "data": 2965,
      "fully": 2966,
      "house": 2967,
      "king": 2968,
      "min": 2969,
      "nn": 2970,
      "under": 2971,
      "vision": 2972,
      "vocab": 2973,
      "ĠX": 2974,
      "Ġ_": 2975,
      "ĠâĶ": 2976,
      "Ġtext": 2977,
      "Ġmorrow": 2978,
      "Ġwon": 2979,
      "Ġbig": 2980,
      "ern": 2981,
      "Ġcru": 2982,
      "Ġdry": 2983,
      "Ġlan": 2984,
      "Ġlaid": 2985,
      "Ġodd": 2986,
      "Ġheld": 2987,
      "ott": 2988,
      "ators": 2989,
      "ster": 2990,
      "omin": 2991,
      "Ġbehind": 2992,
      "Ġinput": 2993,
      "Ġstop": 2994,
      "urs": 2995,
      "Ġlived": 2996,
      "Ġaside": 2997,
      "Ġseat": 2998,
      "ams": 2999,
      "Ġdog": 3000,
      "Too": 3001,
      "Ġvain": 3002,
      "ĠMerc": 3003,
      "emb": 3004,
      "Ġshed": 3005,
      "Ġshepherd": 3006,
      "ĠBohemia": 3007,
      "Ġletter": 3008,
      "ĠPr": 3009,
      "Ġjoin": 3010,
      "Ġrid": 3011,
      "Ġproceed": 3012,
      "Ġprosper": 3013,
      "ideo": 3014,
      "Ġdispatch": 3015,
      "ations": 3016,
      "Ġ\"<|": 3017,
      "Ġcontin": 3018,
      "Ġremain": 3019,
      "Ġlonger": 3020,
      "Ġwomb": 3021,
      "posed": 3022,
      "Ġchoose": 3023,
      "Ġprisoner": 3024,
      "Ġgreen": 3025,
      "Ġcondemn": 3026,
      "Ġchurch": 3027,
      "undred": 3028,
      "layers": 3029,
      "Ġgolden": 3030,
      "Ġpiece": 3031,
      "Ġprivate": 3032,
      "tokenizer": 3033,
      "Ġfresh": 3034,
      "Ġignor": 3035,
      "Ġbecause": 3036,
      "antagenet": 3037,
      "!--": 3038,
      "AL": 3039,
      "Am": 3040,
      "De": 3041,
      "DOR": 3042,
      "EW": 3043,
      "Hark": 3044,
      "Lin": 3045,
      "SIA": 3046,
      "TIUS": 3047,
      "[\"": 3048,
      "act": 3049,
      "eem": 3050,
      "ffect": 3051,
      "him": 3052,
      "light": 3053,
      "long": 3054,
      "mels": 3055,
      "ny": 3056,
      "norm": 3057,
      "rite": 3058,
      "ude": 3059,
      "vail": 3060,
      "which": 3061,
      "ĠNow": 3062,
      "Ġtor": 3063,
      "Ġtent": 3064,
      "Ġtry": 3065,
      "Ġsour": 3066,
      "Ġsus": 3067,
      "Ġsli": 3068,
      "Ġsaint": 3069,
      "Ġmut": 3070,
      "Ġbroke": 3071,
      "Ġbones": 3072,
      "erle": 3073,
      "Ġfru": 3074,
      "Ġfive": 3075,
      "ony": 3076,
      "itors": 3077,
      "Ġcred": 3078,
      "Ġcitizens": 3079,
      "Ġdrown": 3080,
      "Ġlow": 3081,
      "Ġlust": 3082,
      "Ġlau": 3083,
      "Ġthreat": 3084,
      "Ġhundred": 3085,
      "Ġobed": 3086,
      "Ġobey": 3087,
      "Ġpet": 3088,
      "vey": 3089,
      "Ġbend": 3090,
      "Ġbell": 3091,
      "ceit": 3092,
      "lease": 3093,
      "imple": 3094,
      "ety": 3095,
      "Ġeffect": 3096,
      "Ġyourselves": 3097,
      "Ġstood": 3098,
      "Ġstain": 3099,
      "Ġrevere": 3100,
      "asion": 3101,
      "ords": 3102,
      "Ġsole": 3103,
      "ARIEL": 3104,
      "ility": 3105,
      "Ġconqu": 3106,
      "Ġpride": 3107,
      "ieu": 3108,
      "arer": 3109,
      "ĠGo": 3110,
      "ĠGaunt": 3111,
      "ĠGremio": 3112,
      "Ġblessed": 3113,
      "ĠLet": 3114,
      "ĠLEW": 3115,
      "Ġswift": 3116,
      "ĠHortensio": 3117,
      "ĠPadua": 3118,
      "istress": 3119,
      "Ġproclaim": 3120,
      "Ġgrand": 3121,
      "ĠWatch": 3122,
      "Ġsaf": 3123,
      "Ġexc": 3124,
      "Ġrob": 3125,
      "Ġdesperate": 3126,
      "Ġwarm": 3127,
      "Ġ\"\"\"": 3128,
      "Ġprecious": 3129,
      "Ġslander": 3130,
      "Ġbears": 3131,
      "iled": 3132,
      "Ġwoes": 3133,
      "Ġconscience": 3134,
      "Ġentertain": 3135,
      "Ġappare": 3136,
      "atesby": 3137,
      "Sirrah": 3138,
      "enerate": 3139,
      "uthor": 3140,
      "Ġglory": 3141,
      "Ġdouble": 3142,
      "comes": 3143,
      "Ġlands": 3144,
      "Ġsteel": 3145,
      "Ġvision": 3146,
      "Ġsentence": 3147,
      "ĠNorthumberland": 3148,
      "Ġdrunk": 3149,
      "iffusion": 3150,
      "Ġtowards": 3151,
      "Ġknees": 3152,
      "Ġrange": 3153,
      "ĠCapule": 3154,
      "Unto": 3155,
      "chool": 3156,
      "Ġforgot": 3157,
      "Sweet": 3158,
      "Ġwisdom": 3159,
      "Ġforbid": 3160,
      "Ġvenge": 3161,
      "Ġvictory": 3162,
      "LARTIUS": 3163,
      "Ġkinsman": 3164,
      "|>\":": 3165,
      "ĠXI": 3166,
      "Linear": 3167,
      "ĠLEWIS": 3168,
      "ĠWatchman": 3169,
      "'re": 3170,
      "((": 3171,
      ";'": 3172,
      "Bel": 3173,
      "Could": 3174,
      "Hear": 3175,
      "Ind": 3176,
      "Pardon": 3177,
      "PSON": 3178,
      "Pedant": 3179,
      "RTIS": 3180,
      "SAM": 3181,
      "[:": 3182,
      "].": 3183,
      "bray": 3184,
      "dge": 3185,
      "ease": 3186,
      "frames": 3187,
      "gment": 3188,
      "hn": 3189,
      "ias": 3190,
      "iance": 3191,
      "ners": 3192,
      "ohn": 3193,
      "vo": 3194,
      "Ġtask": 3195,
      "Ġauthor": 3196,
      "Ġmount": 3197,
      "Ġmethinks": 3198,
      "Ġmoney": 3199,
      "Ġmasters": 3200,
      "Ġfat": 3201,
      "Ġfought": 3202,
      "Ġcam": 3203,
      "Ġcost": 3204,
      "Ġcapt": 3205,
      "Ġdied": 3206,
      "Ġdeter": 3207,
      "arge": 3208,
      "Ġpal": 3209,
      "Ġpun": 3210,
      "ĠImage": 3211,
      "stant": 3212,
      "owbray": 3213,
      "Ġoft": 3214,
      "Ġga": 3215,
      "Ġhair": 3216,
      "irl": 3217,
      "Ġweight": 3218,
      "Ġeld": 3219,
      "Ġstud": 3220,
      "ract": 3221,
      "road": 3222,
      "Ġseal": 3223,
      "ament": 3224,
      "iful": 3225,
      "ified": 3226,
      "estion": 3227,
      "Ġdoing": 3228,
      "ETER": 3229,
      "ĠEarl": 3230,
      "Ġmanner": 3231,
      "ĠGrumio": 3232,
      "Ġknowledge": 3233,
      "Ġunf": 3234,
      "ĠHow": 3235,
      "ĠAnt": 3236,
      "umerle": 3237,
      "load": 3238,
      "Ġround": 3239,
      "Ġenjoy": 3240,
      "Within": 3241,
      "Ġalive": 3242,
      "Ġdesign": 3243,
      "ways": 3244,
      "Ġhonours": 3245,
      "content": 3246,
      "Ġcontr": 3247,
      "Ġdeadly": 3248,
      "Ġkept": 3249,
      "Ġarmy": 3250,
      "Ġfew": 3251,
      "puts": 3252,
      "Ġlordship": 3253,
      "Ġguest": 3254,
      "Ġguess": 3255,
      "Ġunderstand": 3256,
      "CURTIS": 3257,
      "Ġpromised": 3258,
      "Ġwretched": 3259,
      "Ġdespair": 3260,
      "eeper": 3261,
      "Ġcheeks": 3262,
      "Ġlabour": 3263,
      "Ġteach": 3264,
      "Ġstruck": 3265,
      "Faith": 3266,
      "Ġseqlen": 3267,
      "SAMPSON": 3268,
      ":--": 3269,
      "BU": 3270,
      "Br": 3271,
      "Citizens": 3272,
      "Dis": 3273,
      "Either": 3274,
      "IGON": 3275,
      "Ne": 3276,
      "Su": 3277,
      "born": 3278,
      "bury": 3279,
      "cha": 3280,
      "cal": 3281,
      "cross": 3282,
      "ek": 3283,
      "eal": 3284,
      "good": 3285,
      "pir": 3286,
      "sp": 3287,
      "take": 3288,
      "uct": 3289,
      "whe": 3290,
      "Ġaid": 3291,
      "ounce": 3292,
      "Ġbastard": 3293,
      "orious": 3294,
      "Ġfloat": 3295,
      "llow": 3296,
      "Ġcorn": 3297,
      "Ġcried": 3298,
      "Ġdur": 3299,
      "Ġdance": 3300,
      "Ġdtype": 3301,
      "Ġpack": 3302,
      "Ġhealth": 3303,
      "utio": 3304,
      "ident": 3305,
      "Ġdeput": 3306,
      "Ġdemand": 3307,
      "Ġliest": 3308,
      "Ġsever": 3309,
      "Ġlog": 3310,
      "Ġshake": 3311,
      "run": 3312,
      "Ġherself": 3313,
      "icious": 3314,
      "---": 3315,
      "ĠMaster": 3316,
      "ĠMowbray": 3317,
      "ĠSw": 3318,
      "Ġwhether": 3319,
      "Ġamong": 3320,
      "othing": 3321,
      "Ġspeci": 3322,
      "ppy": 3323,
      "Ġquoth": 3324,
      "unication": 3325,
      "Ġrot": 3326,
      "Ġspent": 3327,
      "Ġplant": 3328,
      "ĠWill": 3329,
      "ĠWhy": 3330,
      "Ġofficer": 3331,
      "Ġexce": 3332,
      "Ġbrothers": 3333,
      "Ġearly": 3334,
      "Ġhonourable": 3335,
      "Ġflowers": 3336,
      "LEY": 3337,
      "Ġmoved": 3338,
      "Ġremed": 3339,
      "Ġwhite": 3340,
      "Ġresult": 3341,
      "Ġtrial": 3342,
      "Ġaccount": 3343,
      "Ġkindred": 3344,
      "Ġguard": 3345,
      "Ġ12": 3346,
      "Ġcharity": 3347,
      "Ġpriest": 3348,
      "Ġbuild": 3349,
      "ewis": 3350,
      "Ġfoolish": 3351,
      "Ġprompt": 3352,
      "Ġhumble": 3353,
      "Ġcounter": 3354,
      "Ġgreet": 3355,
      "Ġvalour": 3356,
      "Ġdreams": 3357,
      "ANTIGON": 3358,
      "Ġmonth": 3359,
      "change": 3360,
      "Ġjudge": 3361,
      "Ġwretch": 3362,
      "Ġencounter": 3363,
      "Ġsummer": 3364,
      "Ġbeggar": 3365,
      "Ġtriumph": 3366,
      "Ġcruel": 3367,
      "BURY": 3368,
      "ANTIGONUS": 3369,
      "16": 3370,
      "Bet": 3371,
      "Ex": 3372,
      "Fear": 3373,
      "Fie": 3374,
      "HOP": 3375,
      "IL": 3376,
      "Mine": 3377,
      "Made": 3378,
      "Pl": 3379,
      "TCLIFF": 3380,
      "cor": 3381,
      "eed": 3382,
      "fall": 3383,
      "go": 3384,
      "gy": 3385,
      "mble": 3386,
      "time": 3387,
      "tune": 3388,
      "ued": 3389,
      "|----": 3390,
      "Ġ6": 3391,
      "Ġ>": 3392,
      "ĠAnd": 3393,
      "Ġedge": 3394,
      "Ġtrans": 3395,
      "heart": 3396,
      "Ġmour": 3397,
      "Ġwail": 3398,
      "Ġbids": 3399,
      "orthy": 3400,
      "Ġfart": 3401,
      "Ġfaint": 3402,
      "ites": 3403,
      "Ġcal": 3404,
      "Ġdin": 3405,
      "Ġdwell": 3406,
      "Ġlod": 3407,
      "Ġyea": 3408,
      "Ġthro": 3409,
      "Ġhun": 3410,
      "step": 3411,
      "ang": 3412,
      "Ġgent": 3413,
      "Ġincl": 3414,
      "leep": 3415,
      "iment": 3416,
      "eding": 3417,
      "edom": 3418,
      "Ġforce": 3419,
      "Ġweary": 3420,
      "add": 3421,
      "Ġstone": 3422,
      "Ġstars": 3423,
      "alities": 3424,
      "Ġdeg": 3425,
      "roy": 3426,
      "Ġseven": 3427,
      "ify": 3428,
      "Ġbutcher": 3429,
      "Ġanon": 3430,
      "Ġneighb": 3431,
      "Ġours": 3432,
      "Ġview": 3433,
      "ĠRoman": 3434,
      "ief": 3435,
      "Ġblame": 3436,
      "ĠLewis": 3437,
      "Ġthereof": 3438,
      "Ġarg": 3439,
      "Ġgoing": 3440,
      "Ġunw": 3441,
      "Ġrise": 3442,
      "Ġenvy": 3443,
      "Ġabroad": 3444,
      "Ġthinks": 3445,
      "aper": 3446,
      "Ġparty": 3447,
      "Ġothers": 3448,
      "ians": 3449,
      "ĠJohn": 3450,
      "ission": 3451,
      "Ġkindness": 3452,
      "Ġchast": 3453,
      "Ġglass": 3454,
      "Ġmiser": 3455,
      "Ġsteal": 3456,
      "Ġwinter": 3457,
      "Ġcondition": 3458,
      "Twas": 3459,
      "Ġbright": 3460,
      "Ġcrave": 3461,
      "Ġminister": 3462,
      "Ġwalls": 3463,
      "Ġextrem": 3464,
      "Ġsatisfied": 3465,
      "RATCLIFF": 3466,
      "ĠVolsces": 3467,
      "Ġidle": 3468,
      "Ġscarce": 3469,
      "Ġbenef": 3470,
      "ataset": 3471,
      "Ġlaugh": 3472,
      "Ġvengeance": 3473,
      "Ġdeterm": 3474,
      "\"]": 3475,
      "36": 3476,
      "Ad": 3477,
      "After": 3478,
      "BIS": 3479,
      "Gentle": 3480,
      "Never": 3481,
      "Off": 3482,
      "Signior": 3483,
      "Under": 3484,
      "VAL": 3485,
      "aff": 3486,
      "ered": 3487,
      "ope": 3488,
      "py": 3489,
      "save": 3490,
      "shall": 3491,
      "vious": 3492,
      "woman": 3493,
      "Ġ@": 3494,
      "Ġer": 3495,
      "Ġver": 3496,
      "Ĥ¹": 3497,
      "incentio": 3498,
      "Ġmag": 3499,
      "Ġmult": 3500,
      "Ġwre": 3501,
      "Ġwench": 3502,
      "rees": 3503,
      "have": 3504,
      "Ġbird": 3505,
      "orous": 3506,
      "Ġfirm": 3507,
      "enes": 3508,
      "ency": 3509,
      "Ġcir": 3510,
      "Ġcorse": 3511,
      "Ġlest": 3512,
      "Ġtool": 3513,
      "Ġhol": 3514,
      "ĠIt": 3515,
      "vell": 3516,
      "ote": 3517,
      "stance": 3518,
      "omas": 3519,
      "utland": 3520,
      "Ġformer": 3521,
      "Ġease": 3522,
      "Ġstart": 3523,
      "Ġrel": 3524,
      "Ġreceived": 3525,
      "riar": 3526,
      "Ġdec": 3527,
      "Ġdeal": 3528,
      "roop": 3529,
      "Ġallow": 3530,
      "rupt": 3531,
      "Ġvile": 3532,
      "ĠRO": 3533,
      "ĠRutland": 3534,
      "Ġfaire": 3535,
      "ANLEY": 3536,
      "Ġconcl": 3537,
      "Ġconvey": 3538,
      "antua": 3539,
      "Ġshrew": 3540,
      "ical": 3541,
      "ĠMantua": 3542,
      "embed": 3543,
      "ared": 3544,
      "arest": 3545,
      "allow": 3546,
      "Ġarri": 3547,
      "ĠBarn": 3548,
      "ĠVincentio": 3549,
      "ĠHer": 3550,
      "Ġquite": 3551,
      "Ġmayst": 3552,
      "loy": 3553,
      "Ġprovost": 3554,
      "Ġsport": 3555,
      "Ġfoes": 3556,
      "agent": 3557,
      "IST": 3558,
      "Ġtruly": 3559,
      "Ġboot": 3560,
      "ĠText": 3561,
      "Ġdism": 3562,
      "Ġroot": 3563,
      "Ġwherefore": 3564,
      "Ġimage": 3565,
      "Ġflower": 3566,
      "Ġparts": 3567,
      "cles": 3568,
      "Ġadm": 3569,
      "Ġcover": 3570,
      "())": 3571,
      "ĠĠĠĠĠĠĠĠĠĠĠĠ": 3572,
      "ailor": 3573,
      "Ġfellows": 3574,
      "Ġchanged": 3575,
      "rench": 3576,
      "Ġhumour": 3577,
      "Ġswords": 3578,
      "Ġacqu": 3579,
      "attn": 3580,
      "umpy": 3581,
      "Ġtyrant": 3582,
      "Ġsteps": 3583,
      "position": 3584,
      "Ġjudgment": 3585,
      "Ġpract": 3586,
      "Ġevil": 3587,
      "ĠIndia": 3588,
      "BALT": 3589,
      "TYBALT": 3590,
      "Whilst": 3591,
      "Ġeasy": 3592,
      "().__": 3593,
      "ĠMercutio": 3594,
      "Ġfruit": 3595,
      "Ġexcuse": 3596,
      "Ġdeputy": 3597,
      "BISHOP": 3598,
      "##": 3599,
      "'?": 3600,
      "Bl": 3601,
      "Bid": 3602,
      "Des": 3603,
      "KEN": 3604,
      "MA": 3605,
      "Methinks": 3606,
      "Put": 3607,
      "Tut": 3608,
      "after": 3609,
      "bin": 3610,
      "dy": 3611,
      "his": 3612,
      "kv": 3613,
      "lp": 3614,
      "oot": 3615,
      "pin": 3616,
      "pes": 3617,
      "qs": 3618,
      "ron": 3619,
      "roth": 3620,
      "rison": 3621,
      "shi": 3622,
      "Ġ7": 3623,
      "ĨĴ": 3624,
      "Ġtaken": 3625,
      "Ġschool": 3626,
      "ining": 3627,
      "Ġwither": 3628,
      "Ġbrow": 3629,
      "Ġbite": 3630,
      "Ġbrows": 3631,
      "Ġbias": 3632,
      "erona": 3633,
      "Ġfain": 3634,
      "ited": 3635,
      "enance": 3636,
      "encode": 3637,
      "Ġdri": 3638,
      "Ġdust": 3639,
      "Ġdull": 3640,
      "Ġnumber": 3641,
      "Ġline": 3642,
      "Ġthunder": 3643,
      "Ġpains": 3644,
      "ĠIn": 3645,
      "ating": 3646,
      "anley": 3647,
      "Ġgown": 3648,
      "Ġgrown": 3649,
      "Ġgift": 3650,
      "Ġghost": 3651,
      "Ġgirl": 3652,
      "Ġbeha": 3653,
      "Ġmeat": 3654,
      "idings": 3655,
      "Ġstab": 3656,
      "think": 3657,
      "arden": 3658,
      "aste": 3659,
      "ĠComin": 3660,
      "ĠCatesby": 3661,
      "Ġvice": 3662,
      "ilia": 3663,
      "Ġknave": 3664,
      "AND": 3665,
      "Ġshore": 3666,
      "ement": 3667,
      "elp": 3668,
      "âĶĢâĶĢâĶĢâĶĢâĶĢâĶĢâĶĢâĶĢâĶ": 3669,
      "Ġblest": 3670,
      "Ġblind": 3671,
      "Ġsirrah": 3672,
      "ĠOption": 3673,
      "Ġuns": 3674,
      "Ġleaves": 3675,
      "ĠAl": 3676,
      "ĠAumerle": 3677,
      "Ġquestion": 3678,
      "Ġjoint": 3679,
      "Ġproof": 3680,
      "Ġspake": 3681,
      "Ġspring": 3682,
      "cians": 3683,
      "ROOT": 3684,
      "ONE": 3685,
      "ĠWe": 3686,
      "agents": 3687,
      "osed": 3688,
      "Ġhonesty": 3689,
      "Ġdisg": 3690,
      "ursed": 3691,
      "Ġtwice": 3692,
      "ĠKeeper": 3693,
      "Ġprevent": 3694,
      "OMAS": 3695,
      "there": 3696,
      "Ġtraitors": 3697,
      "twixt": 3698,
      "ĠâĨĴ": 3699,
      "comm": 3700,
      "Ġwrongs": 3701,
      "Ġburied": 3702,
      "Ġchoice": 3703,
      "Ġreasons": 3704,
      "Ġrepent": 3705,
      "modality": 3706,
      "000": 3707,
      "Alack": 3708,
      "Ġsenate": 3709,
      "place": 3710,
      "Ġlamb": 3711,
      "acher": 3712,
      "Ġaffair": 3713,
      "Ġtyran": 3714,
      "Ġdivine": 3715,
      "Ġembrace": 3716,
      "ĠCorioli": 3717,
      "Ġwhilst": 3718,
      "azed": 3719,
      "Ġleng": 3720,
      "Ġstoop": 3721,
      "Ġmalice": 3722,
      "BRAKEN": 3723,
      "Ġhidden": 3724,
      "Ġsacred": 3725,
      "ĠPlantagenet": 3726,
      "Ġprophe": 3727,
      "Ġfiery": 3728,
      "ĠPaulina": 3729,
      "ĠPrince": 3730,
      "Ġsafety": 3731,
      "ĠCapulet": 3732,
      "ĠCominius": 3733,
      "ĠOptional": 3734,
      "BRAKENBURY": 3735,
      "32": 3736,
      "?'": 3737,
      "AE": 3738,
      "Ap": 3739,
      "DER": 3740,
      "DONE": 3741,
      "Edward": 3742,
      "GOR": 3743,
      "Hence": 3744,
      "MIST": 3745,
      "None": 3746,
      "Once": 3747,
      "Res": 3748,
      "Richard": 3749,
      "RESS": 3750,
      "]]": 3751,
      "dir": 3752,
      "draw": 3753,
      "eld": 3754,
      "ib": 3755,
      "law": 3756,
      "med": 3757,
      "more": 3758,
      "nat": 3759,
      "oard": 3760,
      "pet": 3761,
      "prom": 3762,
      "would": 3763,
      "wav": 3764,
      "Ġes": 3765,
      "Ġids": 3766,
      "Ġast": 3767,
      "Ġavo": 3768,
      "Ġsits": 3769,
      "Ġship": 3770,
      "Ġmain": 3771,
      "Ġwings": 3772,
      "rehe": 3773,
      "Ġbark": 3774,
      "orry": 3775,
      "ises": 3776,
      "erset": 3777,
      "Ġfury": 3778,
      "Ġfinger": 3779,
      "itol": 3780,
      "enen": 3781,
      "Ġca": 3782,
      "Ġnames": 3783,
      "Ġhit": 3784,
      "Ġpil": 3785,
      "Ġpair": 3786,
      "omerset": 3787,
      "Ġgross": 3788,
      "Ġgarden": 3789,
      "Ġinform": 3790,
      "lex": 3791,
      "edious": 3792,
      "utes": 3793,
      "Ġused": 3794,
      "Ġweeds": 3795,
      "Ġeag": 3796,
      "Ġemp": 3797,
      "ention": 3798,
      "Ġstat": 3799,
      "Ġstones": 3800,
      "Ġdelight": 3801,
      "rog": 3802,
      "Ġloath": 3803,
      "Ġloyal": 3804,
      "Ġdoor": 3805,
      "Ġnose": 3806,
      "Tokenizer": 3807,
      "ardine": 3808,
      "Ġanger": 3809,
      "ellow": 3810,
      "Ġnecess": 3811,
      "igence": 3812,
      "Ġfares": 3813,
      "Ġknight": 3814,
      "elve": 3815,
      "ĠList": 3816,
      "Ġoracle": 3817,
      "ĠOVER": 3818,
      "Myself": 3819,
      "hys": 3820,
      "Ġmayor": 3821,
      "unning": 3822,
      "Ġhollow": 3823,
      "loss": 3824,
      "Ġplague": 3825,
      "Ġfright": 3826,
      "icked": 3827,
      "Without": 3828,
      "Ġsail": 3829,
      "Ġalways": 3830,
      "Ġrock": 3831,
      "Ġwherein": 3832,
      "Ġimag": 3833,
      "Wherein": 3834,
      "aughters": 3835,
      "Ġprevail": 3836,
      "Ġcommend": 3837,
      "Ġadieu": 3838,
      "Ġperceive": 3839,
      "Ġprayer": 3840,
      "PETER": 3841,
      "Ġplead": 3842,
      "forward": 3843,
      "():": 3844,
      "Ġtroth": 3845,
      "Ġrude": 3846,
      "ĠĠĠĠĠĠĠĠĠĠĠĠĠĠĠĠĠĠĠ": 3847,
      "Ġclaim": 3848,
      "Ġtongues": 3849,
      "Ġguilt": 3850,
      "Ġsmile": 3851,
      "Ġtread": 3852,
      "Ġcares": 3853,
      "GREGOR": 3854,
      "Ġdrawn": 3855,
      "Ġassist": 3856,
      "Ġwanton": 3857,
      "Ġtempt": 3858,
      "Ġimprison": 3859,
      "unts": 3860,
      "shal": 3861,
      "Ġmarket": 3862,
      "Ġdeserve": 3863,
      "guage": 3864,
      "Ġdrop": 3865,
      "ĠCapitol": 3866,
      "ĠThomas": 3867,
      "Ġcheek": 3868,
      "Ġabsence": 3869,
      "ollo": 3870,
      "Ġexpress": 3871,
      "Ġcreature": 3872,
      "Ġempt": 3873,
      "Ġutter": 3874,
      "Ġtrumpets": 3875,
      "Ġignorant": 3876,
      "Indeed": 3877,
      "Brother": 3878,
      "ealous": 3879,
      "Ġspecial": 3880,
      "Ġrotten": 3881,
      "Ġremedy": 3882,
      "Ġcirc": 3883,
      "ĠBarnardine": 3884,
      "Ġpractise": 3885,
      "DERBY": 3886,
      "MISTRESS": 3887,
      "enenius": 3888,
      "ĠOVERDONE": 3889,
      "GREGORY": 3890,
      "50": 3891,
      "Art": 3892,
      "CH": 3893,
      "Dost": 3894,
      "Dict": 3895,
      "FORD": 3896,
      "OX": 3897,
      "Poor": 3898,
      "RICH": 3899,
      "SA": 3900,
      "SOM": 3901,
      "Turn": 3902,
      "app": 3903,
      "cis": 3904,
      "ey": 3905,
      "eous": 3906,
      "generate": 3907,
      "mn": 3908,
      "my": 3909,
      "mion": 3910,
      "mall": 3911,
      "pus": 3912,
      "sa": 3913,
      "what": 3914,
      "ware": 3915,
      "wise": 3916,
      "ype": 3917,
      "yard": 3918,
      "Ġ8": 3919,
      "ĠWhere": 3920,
      "Ġtune": 3921,
      "Ġtroop": 3922,
      "Ġtidings": 3923,
      "Ġtedious": 3924,
      "held": 3925,
      "Ġaim": 3926,
      "Ġaught": 3927,
      "Ġsens": 3928,
      "Ġsimple": 3929,
      "Ġmat": 3930,
      "Ġwa": 3931,
      "Ġwent": 3932,
      "Ġwag": 3933,
      "Ġwont": 3934,
      "Ġwives": 3935,
      "Ġwicked": 3936,
      "haps": 3937,
      "isa": 3938,
      "onounce": 3939,
      "itude": 3940,
      "Ġcre": 3941,
      "Ġcell": 3942,
      "Ġcure": 3943,
      "Ġcarry": 3944,
      "Ġcries": 3945,
      "Ġcfg": 3946,
      "Ġdi": 3947,
      "esy": 3948,
      "Ġloud": 3949,
      "arch": 3950,
      "array": 3951,
      "Ġthrust": 3952,
      "Ġow": 3953,
      "Ġport": 3954,
      "Ġpure": 3955,
      "Ġpress": 3956,
      "Ġpub": 3957,
      "othe": 3958,
      "ane": 3959,
      "semb": 3960,
      "Ġbecomes": 3961,
      "cend": 3962,
      "Ġstar": 3963,
      "Ġstorm": 3964,
      "Ġrepe": 3965,
      "Ġreceive": 3966,
      "ashi": 3967,
      "rious": 3968,
      "Ġdew": 3969,
      "Ġdeceived": 3970,
      "Ġdeposed": 3971,
      "Ġasleep": 3972,
      "Ġshar": 3973,
      "this": 3974,
      "ards": 3975,
      "hant": 3976,
      "ello": 3977,
      "Ġvantage": 3978,
      "Ġconj": 3979,
      "ERIA": 3980,
      "ERSET": 3981,
      "Ġshri": 3982,
      "ĠMusic": 3983,
      "ĠSo": 3984,
      "ĠSic": 3985,
      "ĠSomerset": 3986,
      "Ġamb": 3987,
      "Head": 3988,
      "oken": 3989,
      "Ġsheep": 3990,
      "Ġtherein": 3991,
      "Ġargs": 3992,
      "Ġspend": 3993,
      "ĠVerona": 3994,
      "ĠAp": 3995,
      "Ġjealous": 3996,
      "unction": 3997,
      "loved": 3998,
      "Ġras": 3999,
      "Ġproper": 4000,
      "Ġshouldst": 4001,
      "Ġoutward": 4002,
      "aced": 4003,
      "Ġwhole": 4004,
      "ĠYour": 4005,
      "Ġoffend": 4006,
      "Ġalas": 4007,
      "Ġearn": 4008,
      "eeth": 4009,
      "cls": 4010,
      "Ġado": 4011,
      "Ġmaids": 4012,
      "Ġmeaning": 4013,
      "Ġchief": 4014,
      "Ġuntil": 4015,
      "Ġresign": 4016,
      "Ġbegins": 4017,
      "Ġwoful": 4018,
      "ĠJove": 4019,
      "Ġmodalities": 4020,
      "Ġruin": 4021,
      "__()": 4022,
      "Ġfollows": 4023,
      "ethought": 4024,
      "Ġbanished": 4025,
      "Ġtreacher": 4026,
      "Ġpassing": 4027,
      "Ġdevise": 4028,
      "Ġ//": 4029,
      "Ġfollowers": 4030,
      "Ġfools": 4031,
      "Ġadvise": 4032,
      "Show": 4033,
      "Ġgives": 4034,
      "Ġrememb": 4035,
      "Ġsupper": 4036,
      "Ġawake": 4037,
      "Ġborne": 4038,
      "Ġsilence": 4039,
      "Ġinstruct": 4040,
      "Comm": 4041,
      "Ġbroken": 4042,
      "Ġpossible": 4043,
      "Ġnobles": 4044,
      "Ġprofess": 4045,
      "Having": 4046,
      "Ġdespite": 4047,
      "MOND": 4048,
      "Ġgarments": 4049,
      "Ġcastle": 4050,
      "grad": 4051,
      "Ġthrive": 4052,
      "Ġundone": 4053,
      "Ġdreadful": 4054,
      "Ġbabe": 4055,
      "Ġprotect": 4056,
      "Besides": 4057,
      "Ġ[]": 4058,
      "Ġframe": 4059,
      "Ġviolent": 4060,
      "ĠChristian": 4061,
      "ĠGrey": 4062,
      "Ġoccasion": 4063,
      "Into": 4064,
      "ursday": 4065,
      "Ġcontinue": 4066,
      "Ġbelly": 4067,
      "Ġauthority": 4068,
      "Ġfatal": 4069,
      "Ġfarther": 4070,
      "Ġthroat": 4071,
      "Ġbenefit": 4072,
      "VALERIA": 4073,
      "pinion": 4074,
      "Ġaffairs": 4075,
      "prompt": 4076,
      "hysic": 4077,
      "OXFORD": 4078,
      "RICHMOND": 4079,
      "SOMERSET": 4080,
      "mione": 4081,
      "20": 4082,
      "Ar": 4083,
      "BUS": 4084,
      "Great": 4085,
      "HY": 4086,
      "Hast": 4087,
      "LIUS": 4088,
      "MOP": 4089,
      "Pre": 4090,
      "Per": 4091,
      "Tybalt": 4092,
      "Tailor": 4093,
      "Very": 4094,
      "bow": 4095,
      "cing": 4096,
      "call": 4097,
      "ev": 4098,
      "fl": 4099,
      "father": 4100,
      "float": 4101,
      "gent": 4102,
      "iond": 4103,
      "main": 4104,
      "oat": 4105,
      "ook": 4106,
      "ping": 4107,
      "pass": 4108,
      "rate": 4109,
      "ratch": 4110,
      "train": 4111,
      "Ġ<": 4112,
      "Ġ~": 4113,
      "Ġir": 4114,
      "ĠThere": 4115,
      "ĠWhen": 4116,
      "Ġtest": 4117,
      "Ġtort": 4118,
      "Ġtaste": 4119,
      "Ġsy": 4120,
      "Ġsan": 4121,
      "Ġsix": 4122,
      "Ġsorry": 4123,
      "Ġmask": 4124,
      "Ġwine": 4125,
      "Ġwander": 4126,
      "reed": 4127,
      "Ġband": 4128,
      "Ġbond": 4129,
      "Ġbud": 4130,
      "erved": 4131,
      "Ġframes": 4132,
      "ene": 4133,
      "enn": 4134,
      "ening": 4135,
      "Ġcunning": 4136,
      "Ġdet": 4137,
      "Ġdue": 4138,
      "Ġdata": 4139,
      "Ġnine": 4140,
      "Ġlend": 4141,
      "Ġlarge": 4142,
      "arget": 4143,
      "Ġowe": 4144,
      "Ġpin": 4145,
      "Ġpawn": 4146,
      "Ġpaper": 4147,
      "ano": 4148,
      "Ġgain": 4149,
      "Ġgage": 4150,
      "Ġbelike": 4151,
      "Ġbeheld": 4152,
      "Ġinfect": 4153,
      "ldom": 4154,
      "Ġweap": 4155,
      "Ġele": 4156,
      "Ġequ": 4157,
      "enture": 4158,
      "ills": 4159,
      "Ġstore": 4160,
      "Ġstock": 4161,
      "Ġstuff": 4162,
      "Ġrenown": 4163,
      "rib": 4164,
      "Ġdelay": 4165,
      "room": 4166,
      "Ġlip": 4167,
      "Ġseas": 4168,
      "uses": 4169,
      "andal": 4170,
      "Ġange": 4171,
      "astype": 4172,
      "Ġneg": 4173,
      "Ġvan": 4174,
      "hop": 4175,
      "olix": 4176,
      "Ġconc": 4177,
      "ouses": 4178,
      "Ġprod": 4179,
      "Ġshut": 4180,
      "que": 4181,
      "ĠMOW": 4182,
      "ĠMenenius": 4183,
      "eless": 4184,
      "ustice": 4185,
      "ĠLe": 4186,
      "result": 4187,
      "Ġsway": 4188,
      "Ġbran": 4189,
      "ĠBona": 4190,
      "Ġkingly": 4191,
      "Ġunnat": 4192,
      "ĠHarry": 4193,
      "Ġlean": 4194,
      "Ġlegs": 4195,
      "ĠAudio": 4196,
      "Ġquit": 4197,
      "look": 4198,
      "Ġrash": 4199,
      "Ġspo": 4200,
      "imely": 4201,
      "Ġenvious": 4202,
      "Ġdisd": 4203,
      "Ġdisposition": 4204,
      "Ġexile": 4205,
      "Ġheav": 4206,
      "ABHOR": 4207,
      "Ġintend": 4208,
      "ĠDict": 4209,
      "Ġrog": 4210,
      "Ġroom": 4211,
      "Ġdesert": 4212,
      "append": 4213,
      "Ġgentlewoman": 4214,
      "Ġimg": 4215,
      "Ġtwelve": 4216,
      "Ġflight": 4217,
      "iteous": 4218,
      "THOMAS": 4219,
      "Ġperil": 4220,
      "Ġperish": 4221,
      "ĠFriar": 4222,
      "Ġwrite": 4223,
      "Ġcontract": 4224,
      "swain": 4225,
      "Ġwhither": 4226,
      "Ġaffect": 4227,
      "orses": 4228,
      "Ġkeeps": 4229,
      "STANLEY": 4230,
      "Ġcheap": 4231,
      "Ġchair": 4232,
      "Ġpursu": 4233,
      "Ġcountenance": 4234,
      "Ġ25": 4235,
      "Ġprize": 4236,
      "Ġpleased": 4237,
      "ĠSIATokenizer": 4238,
      "MILLIUS": 4239,
      "ounty": 4240,
      "Ġhumbly": 4241,
      "Ġcourtesy": 4242,
      "Ġcurst": 4243,
      "Ġadvance": 4244,
      "Ġadvantage": 4245,
      "(\"--": 4246,
      "Ġspirits": 4247,
      "Two": 4248,
      "Ġdenied": 4249,
      "ancy": 4250,
      "cape": 4251,
      "Ġsilver": 4252,
      "Ġbetwixt": 4253,
      "Ġbrook": 4254,
      "Ġresolve": 4255,
      "ĠThursday": 4256,
      "Ġwedding": 4257,
      "Ġsighs": 4258,
      "Ġcolour": 4259,
      "ĠIndian": 4260,
      "Ġhurt": 4261,
      "BRAY": 4262,
      "Ġclear": 4263,
      "Ġprepared": 4264,
      "argument": 4265,
      "Ġdamned": 4266,
      "Ġshadow": 4267,
      "Ġpleasant": 4268,
      "Ġinnocent": 4269,
      "Ġforsworn": 4270,
      "ĠCaius": 4271,
      "EXETER": 4272,
      "Death": 4273,
      "Ġmutin": 4274,
      "Ġconquer": 4275,
      "Ġpalace": 4276,
      "Ġpunish": 4277,
      "Ġcontrary": 4278,
      "Ġexcell": 4279,
      "Ġdinner": 4280,
      "Ġneighbour": 4281,
      "Ġmiserable": 4282,
      "MAMILLIUS": 4283,
      "Ġempty": 4284,
      "ĠMusician": 4285,
      "BUSHY": 4286,
      "MOPSA": 4287,
      "iondello": 4288,
      "Ġsanct": 4289,
      "olixenes": 4290,
      "ĠMOWBRAY": 4291,
      "ABHORSON": 4292,
      "CY": 4293,
      "Cousin": 4294,
      "Know": 4295,
      "Nothing": 4296,
      "Ret": 4297,
      "Right": 4298,
      "Rem": 4299,
      "Sc": 4300,
      "Sp": 4301,
      "Sha": 4302,
      "Save": 4303,
      "TO": 4304,
      "Widow": 4305,
      "acc": 4306,
      "base": 4307,
      "can": 4308,
      "cod": 4309,
      "cond": 4310,
      "cio": 4311,
      "clock": 4312,
      "ds": 4313,
      "dem": 4314,
      "eos": 4315,
      "fre": 4316,
      "gin": 4317,
      "hor": 4318,
      "hore": 4319,
      "ipe": 4320,
      "kedom": 4321,
      "mo": 4322,
      "nels": 4323,
      "pic": 4324,
      "point": 4325,
      "ta": 4326,
      "txt": 4327,
      "trans": 4328,
      "ug": 4329,
      "urious": 4330,
      "write": 4331,
      "yond": 4332,
      "Ġ:": 4333,
      "ĠQ": 4334,
      "ĠThey": 4335,
      "Ġtut": 4336,
      "Ġtable": 4337,
      "Ġscept": 4338,
      "Ġmess": 4339,
      "Ġmiss": 4340,
      "Ġmurderer": 4341,
      "Ġmaking": 4342,
      "Ġmotion": 4343,
      "Ġwot": 4344,
      "Ġwood": 4345,
      "Ġwond": 4346,
      "rease": 4347,
      "Ġbas": 4348,
      "Ġball": 4349,
      "Ġbatch": 4350,
      "ising": 4351,
      "erd": 4352,
      "erve": 4353,
      "Ġfr": 4354,
      "Ġfro": 4355,
      "Ġfee": 4356,
      "Ġfashi": 4357,
      "ences": 4358,
      "Ġcore": 4359,
      "Ġcens": 4360,
      "Ġcup": 4361,
      "Ġcalm": 4362,
      "Ġdag": 4363,
      "Ġdign": 4364,
      "Ġdies": 4365,
      "Ġdaughters": 4366,
      "Ġnaked": 4367,
      "Ġyonder": 4368,
      "Ġtomb": 4369,
      "Ġos": 4370,
      "Ġopinion": 4371,
      "Ġpol": 4372,
      "Ġpainted": 4373,
      "Ġphysic": 4374,
      "Ġpiteous": 4375,
      "Ġheed": 4376,
      "states": 4377,
      "omen": 4378,
      "Ġgate": 4379,
      "sequ": 4380,
      "Ġbeloved": 4381,
      "imod": 4382,
      "Ġmend": 4383,
      "ourish": 4384,
      "Ġweigh": 4385,
      "Ġstory": 4386,
      "Ġreward": 4387,
      "urance": 4388,
      "Ġdebt": 4389,
      "Ġseest": 4390,
      "Ġones": 4391,
      "ARCH": 4392,
      "aming": 4393,
      "amed": 4394,
      "Ġload": 4395,
      "Three": 4396,
      "ruly": 4397,
      "thou": 4398,
      "Ġvocab": 4399,
      "oler": 4400,
      "Ġfail": 4401,
      "ERCY": 4402,
      "Ġpronounce": 4403,
      "ĠMessenger": 4404,
      "elt": 4405,
      "Ġgoodness": 4406,
      "outs": 4407,
      "Ġamen": 4408,
      "ĠGPU": 4409,
      "Ġblock": 4410,
      "Ġhatred": 4411,
      "ĠBiondello": 4412,
      "Ġtheirs": 4413,
      "Ġunb": 4414,
      "ĠAd": 4415,
      "Ġquench": 4416,
      "umble": 4417,
      "ĠPeter": 4418,
      "ĠPisa": 4419,
      "ĠPolixenes": 4420,
      "ĠPERCY": 4421,
      "Ġjour": 4422,
      "uns": 4423,
      "Ġspare": 4424,
      "Ġspoken": 4425,
      "cian": 4426,
      "Ġseeing": 4427,
      "Ġplot": 4428,
      "Ġdiss": 4429,
      "Ġdiscontent": 4430,
      "ffin": 4431,
      "Ġexpect": 4432,
      "Ġintell": 4433,
      "ĠDid": 4434,
      "lip": 4435,
      "cont": 4436,
      "Ġprey": 4437,
      "Ġpartic": 4438,
      "Ġslow": 4439,
      "THAS": 4440,
      "ĠNap": 4441,
      "Ġperfect": 4442,
      "Ġperpet": 4443,
      "ĠFl": 4444,
      "Ġwrath": 4445,
      "ression": 4446,
      "Thanks": 4447,
      "Ġremains": 4448,
      "lesome": 4449,
      "Ġmodality": 4450,
      "Ġrule": 4451,
      "Ġhark": 4452,
      "Ġcrowns": 4453,
      "Ġcourage": 4454,
      "Ġwits": 4455,
      "Ġaccord": 4456,
      "Ġaccess": 4457,
      "Ġaccus": 4458,
      "Ġaccuse": 4459,
      "Still": 4460,
      "Ġends": 4461,
      "Ġendure": 4462,
      "Ġfolly": 4463,
      "Ġsmo": 4464,
      "Ġtremb": 4465,
      "ĠâĤ¹": 4466,
      "Ġbodies": 4467,
      "Ġjoys": 4468,
      "Ġjoyful": 4469,
      "Ġfortunes": 4470,
      "Ġmistake": 4471,
      "Ġnatural": 4472,
      "Ġattempt": 4473,
      "Ġhappiness": 4474,
      "Ġundertake": 4475,
      "Ġmisery": 4476,
      "leness": 4477,
      "Ġneedful": 4478,
      "Ġcurses": 4479,
      "Ġcurrent": 4480,
      "bsz": 4481,
      "Ġassurance": 4482,
      "Ġpersu": 4483,
      "Only": 4484,
      "Ġsenators": 4485,
      "Ġconduct": 4486,
      "Ġaccept": 4487,
      "Ġsometime": 4488,
      "Ġchide": 4489,
      "Ġcrack": 4490,
      "Ġdrum": 4491,
      "chance": 4492,
      "Ġgrows": 4493,
      "weight": 4494,
      "Ġwaters": 4495,
      "Ġcursed": 4496,
      "Ġinstrument": 4497,
      "ĠRivers": 4498,
      "Ġterror": 4499,
      "Ġresolved": 4500,
      "Ġwhiles": 4501,
      "Ġburthen": 4502,
      "Ġgriev": 4503,
      "Ġdirect": 4504,
      "Ġgroan": 4505,
      "Ġlatents": 4506,
      "Ġhopes": 4507,
      "Ġcolours": 4508,
      "Ġdukedom": 4509,
      "ĠStanley": 4510,
      "Ġapproach": 4511,
      "Ġprotest": 4512,
      "BALTHAS": 4513,
      "Ġpenit": 4514,
      "Ġprinces": 4515,
      "Ġprincess": 4516,
      "Ġunknown": 4517,
      "Ġwounded": 4518,
      "Prithee": 4519,
      "Ġgovernment": 4520,
      "Ġlanguage": 4521,
      "Ġcredit": 4522,
      "Ġobedience": 4523,
      "Ġpetition": 4524,
      "Ġsolemn": 4525,
      "Believe": 4526,
      "Ġdurst": 4527,
      "Ġseveral": 4528,
      "hearted": 4529,
      "Ġwreck": 4530,
      "âĶĢâĶĢâĶĢâĶĢâĶĢâĶĢâĶĢâĶĢâĶĢâĶĢâĶ": 4531,
      "Ġemploy": 4532,
      "Ġcircum": 4533,
      "Ġpublic": 4534,
      "Ġremembrance": 4535,
      "Ġunnatural": 4536,
      "picion": 4537,
      "imodal": 4538,
      "BALTHASAR": 4539,
      "10": 4540,
      "?--": 4541,
      "AI": 4542,
      "Bear": 4543,
      "Boat": 4544,
      "Dataset": 4545,
      "Father": 4546,
      "FOL": 4547,
      "IT": 4548,
      "Might": 4549,
      "Mark": 4550,
      "NS": 4551,
      "PE": 4552,
      "Post": 4553,
      "Page": 4554,
      "Rep": 4555,
      "SS": 4556,
      "aces": 4557,
      "bb": 4558,
      "bear": 4559,
      "cfg": 4560,
      "do": 4561,
      "every": 4562,
      "fer": 4563,
      "fold": 4564,
      "gers": 4565,
      "how": 4566,
      "just": 4567,
      "lar": 4568,
      "mity": 4569,
      "numpy": 4570,
      "oe": 4571,
      "oved": 4572,
      "rous": 4573,
      "rounds": 4574,
      "sing": 4575,
      "same": 4576,
      "uary": 4577,
      "yr": 4578,
      "Ġteeth": 4579,
      "hest": 4580,
      "Ġsink": 4581,
      "Ġsins": 4582,
      "Ġmile": 4583,
      "Ġwave": 4584,
      "happy": 4585,
      "nds": 4586,
      "Ġba": 4587,
      "Ġbare": 4588,
      "ories": 4589,
      "isper": 4590,
      "ishop": 4591,
      "Ġfle": 4592,
      "Ġfame": 4593,
      "Ġfile": 4594,
      "ita": 4595,
      "Ġcease": 4596,
      "Ġnu": 4597,
      "Ġnought": 4598,
      "Ġled": 4599,
      "aries": 4600,
      "Ġhost": 4601,
      "Ġhunt": 4602,
      "Ġhouses": 4603,
      "Ġhorses": 4604,
      "Ġopt": 4605,
      "Ġobs": 4606,
      "Ġpad": 4607,
      "Ġpowers": 4608,
      "atic": 4609,
      "atience": 4610,
      "stit": 4611,
      "omp": 4612,
      "Ġgru": 4613,
      "Ġbeyond": 4614,
      "Ġhaz": 4615,
      "img": 4616,
      "Ġmere": 4617,
      "Ġisle": 4618,
      "Ġisland": 4619,
      "ourage": 4620,
      "aded": 4621,
      "Ġeast": 4622,
      "idence": 4623,
      "idden": 4624,
      "Ġits": 4625,
      "aly": 4626,
      "ales": 4627,
      "Ġrealm": 4628,
      "Ġkin": 4629,
      "Ġdepend": 4630,
      "roll": 4631,
      "Ġsell": 4632,
      "Ġseize": 4633,
      "aml": 4634,
      "Ġshape": 4635,
      "Thr": 4636,
      "Those": 4637,
      "ctor": 4638,
      "ĠCan": 4639,
      "ĠCal": 4640,
      "Ġvir": 4641,
      "Ġvault": 4642,
      "akest": 4643,
      "ulate": 4644,
      "olute": 4645,
      "Ġfaces": 4646,
      "ants": 4647,
      "Ġshr": 4648,
      "ĠMod": 4649,
      "ĠSR": 4650,
      "Ġcomest": 4651,
      "ĠEl": 4652,
      "ĠEx": 4653,
      "ieved": 4654,
      "Ġmanners": 4655,
      "arent": 4656,
      "ĠGood": 4657,
      "Ġblush": 4658,
      "Heaven": 4659,
      "Ġswallow": 4660,
      "Ġbrings": 4661,
      "ĠBe": 4662,
      "ĠBl": 4663,
      "ĠBr": 4664,
      "Ġhereafter": 4665,
      "Ġspect": 4666,
      "Ġleads": 4667,
      "ĠPro": 4668,
      "ĠPath": 4669,
      "Young": 4670,
      "ized": 4671,
      "Ġring": 4672,
      "Ġspite": 4673,
      "Ġfathers": 4674,
      "Ġeng": 4675,
      "Ġenmity": 4676,
      "ĠWho": 4677,
      "Ġboar": 4678,
      "CAS": 4679,
      "Ġsav": 4680,
      "ĠTake": 4681,
      "ĠYet": 4682,
      "Ġalter": 4683,
      "Ġintent": 4684,
      "Ġrose": 4685,
      "Ġlooking": 4686,
      "Ġfriendly": 4687,
      "Ġimages": 4688,
      "cons": 4689,
      "Ġflies": 4690,
      "Ġpreview": 4691,
      "Ġfairly": 4692,
      "tled": 4693,
      "Ġslay": 4694,
      "Ġadvers": 4695,
      "ĠNay": 4696,
      "ĠFrench": 4697,
      "Ġscope": 4698,
      "Ġscene": 4699,
      "Ġcock": 4700,
      "Ġways": 4701,
      "Ġraise": 4702,
      "they": 4703,
      "aintain": 4704,
      "Ġarmour": 4705,
      "Ġwhore": 4706,
      "Ġtrade": 4707,
      "Ġuntimely": 4708,
      "Ġfeed": 4709,
      "Ġcompass": 4710,
      "Ġcomplex": 4711,
      "ney": 4712,
      "Ġslept": 4713,
      "Ġapprehe": 4714,
      "Ġpurcha": 4715,
      "orset": 4716,
      "Ġseeming": 4717,
      "Conv": 4718,
      "Ġbrain": 4719,
      "Ġpassage": 4720,
      "Ġdevice": 4721,
      "Ġglorious": 4722,
      "uteous": 4723,
      "Ġholds": 4724,
      "Ġstrew": 4725,
      "Ġhateful": 4726,
      "Ġcholer": 4727,
      "Ġturns": 4728,
      "Ġinstant": 4729,
      "Ġrevenue": 4730,
      "former": 4731,
      "Ġ{\"": 4732,
      "Ġwants": 4733,
      "Ġtemper": 4734,
      "Ġgiving": 4735,
      "Ġgrey": 4736,
      "Ġrepair": 4737,
      "Ġimposs": 4738,
      "Ġmaiden": 4739,
      "NORFOL": 4740,
      "Ġcommanded": 4741,
      "Ġhanging": 4742,
      "Ġdares": 4743,
      "Ġfreely": 4744,
      "Ġservices": 4745,
      "Ġcontented": 4746,
      "Ġdrums": 4747,
      "Ġ336": 4748,
      "channels": 4749,
      "Ġdiscover": 4750,
      "Ġdeserves": 4751,
      "Ġgranted": 4752,
      "ĠLucio": 4753,
      "Ġcorre": 4754,
      "Ġprofit": 4755,
      "Ġterms": 4756,
      "Ġresolution": 4757,
      "Ġshortly": 4758,
      "Ġvex": 4759,
      "Ġsingle": 4760,
      "Ġpraise": 4761,
      "Ġdrops": 4762,
      "strous": 4763,
      "Ġincrease": 4764,
      "Ġabsent": 4765,
      "Ġprivile": 4766,
      "Ġvenom": 4767,
      "noon": 4768,
      "Ġrespected": 4769,
      "Beseech": 4770,
      "Ġoppos": 4771,
      "Ġcomplain": 4772,
      "ĠâĶĮ": 4773,
      "ĠâĶĶ": 4774,
      "Ġodds": 4775,
      "Ġprosperous": 4776,
      "DORCAS": 4777,
      "Ġtorment": 4778,
      "Ġsuspicion": 4779,
      "Ġreverend": 4780,
      "Ġapparel": 4781,
      "Ġcamest": 4782,
      "Ġcaptain": 4783,
      "Supp": 4784,
      "corpus": 4785,
      "Ġmourn": 4786,
      "Ġdegree": 4787,
      "ĠROSS": 4788,
      "ĠHermione": 4789,
      "AEd": 4790,
      "Ġsharp": 4791,
      "Ġearnest": 4792,
      "Ġdisdain": 4793,
      "Ġexcellent": 4794,
      "demo": 4795,
      "Ġsceptre": 4796,
      "Ġdagger": 4797,
      "ĠNaples": 4798,
      "Ġsmooth": 4799,
      "Boatswain": 4800,
      "NORFOLK": 4801,
      "(-": 4802,
      "64": 4803,
      "92": 4804,
      "Amen": 4805,
      "Boy": 4806,
      "Came": 4807,
      "DIN": 4808,
      "Dear": 4809,
      "FER": 4810,
      "GH": 4811,
      "Ghost": 4812,
      "Has": 4813,
      "Help": 4814,
      "Long": 4815,
      "Mistress": 4816,
      "Please": 4817,
      "RR": 4818,
      "Roman": 4819,
      "Se": 4820,
      "Set": 4821,
      "Up": 4822,
      "Wilt": 4823,
      "Worthy": 4824,
      "``": 4825,
      "af": 4826,
      "action": 4827,
      "aily": 4828,
      "batch": 4829,
      "bins": 4830,
      "file": 4831,
      "fret": 4832,
      "gar": 4833,
      "iven": 4834,
      "iate": 4835,
      "kin": 4836,
      "ker": 4837,
      "nal": 4838,
      "nano": 4839,
      "pul": 4840,
      "tic": 4841,
      "uce": 4842,
      "vice": 4843,
      "video": 4844,
      "wife": 4845,
      "ĠThen": 4846,
      "ĠTherefore": 4847,
      "Ġtame": 4848,
      "Ġtide": 4849,
      "Ġtap": 4850,
      "Ġtaught": 4851,
      "Ġtarget": 4852,
      "Ġable": 4853,
      "Ġsouth": 4854,
      "ination": 4855,
      "Ġmor": 4856,
      "Ġmill": 4857,
      "Ġmessenger": 4858,
      "Ġwort": 4859,
      "Ġwait": 4860,
      "reland": 4861,
      "Ġbury": 4862,
      "erate": 4863,
      "erns": 4864,
      "Ġfal": 4865,
      "Ġfig": 4866,
      "Ġfurn": 4867,
      "itus": 4868,
      "Ġchat": 4869,
      "Ġcro": 4870,
      "Ġcatch": 4871,
      "Ġdig": 4872,
      "Ġdress": 4873,
      "Ġdaily": 4874,
      "Ġlun": 4875,
      "Ġlark": 4876,
      "Ġthorn": 4877,
      "Ġthief": 4878,
      "Ġtools": 4879,
      "Ġpot": 4880,
      "Ġparent": 4881,
      "ĠIreland": 4882,
      "ative": 4883,
      "ature": 4884,
      "atcl": 4885,
      "start": 4886,
      "ange": 4887,
      "ances": 4888,
      "omans": 4889,
      "Ġglo": 4890,
      "Ġbef": 4891,
      "Ġbeard": 4892,
      "Ġbethink": 4893,
      "Ġmeant": 4894,
      "Ġweather": 4895,
      "Ġwept": 4896,
      "ades": 4897,
      "Ġstol": 4898,
      "Ġstamp": 4899,
      "alis": 4900,
      "aline": 4901,
      "Ġrej": 4902,
      "Ġrevol": 4903,
      "ricians": 4904,
      "raced": 4905,
      "Ġlion": 4906,
      "Ġseason": 4907,
      "verse": 4908,
      "Ġwilling": 4909,
      "Ġwillingly": 4910,
      "andb": 4911,
      "Ġsull": 4912,
      "Ġsuck": 4913,
      "ruction": 4914,
      "thing": 4915,
      "cture": 4916,
      "ĠCo": 4917,
      "ĠCode": 4918,
      "ĠCons": 4919,
      "Ġvows": 4920,
      "ilence": 4921,
      "ĠRos": 4922,
      "ĠRomans": 4923,
      "Ġknife": 4924,
      "Ġconce": 4925,
      "Ġconceit": 4926,
      "Ġconstant": 4927,
      "icy": 4928,
      "ĠMay": 4929,
      "ember": 4930,
      "ĠST": 4931,
      "Ġcomb": 4932,
      "Ġamazed": 4933,
      "oked": 4934,
      "Ġswell": 4935,
      "ĠBer": 4936,
      "Ġlovely": 4937,
      "Ġunc": 4938,
      "Ġunless": 4939,
      "pping": 4940,
      "Ġworn": 4941,
      "ĠAI": 4942,
      "ĠPray": 4943,
      "Ġjew": 4944,
      "locks": 4945,
      "Ġruth": 4946,
      "Ġmuster": 4947,
      "Ġspur": 4948,
      "Ġoutputs": 4949,
      "ased": 4950,
      "Ġboots": 4951,
      "ĠTata": 4952,
      "Ġdisper": 4953,
      "Ġpeers": 4954,
      "ĠDo": 4955,
      "Ġabhor": 4956,
      "Ġroar": 4957,
      "Ġtells": 4958,
      "Ġwhereof": 4959,
      "Ġwarlike": 4960,
      "liament": 4961,
      "Ġhasty": 4962,
      "Ġfears": 4963,
      "Ġgreatest": 4964,
      "Ġcommitted": 4965,
      "Ġperj": 4966,
      "Ġperforce": 4967,
      "ĠFarewell": 4968,
      "Ġcoll": 4969,
      "portion": 4970,
      "Ġwrought": 4971,
      "forth": 4972,
      "Ġnorth": 4973,
      "Ġrap": 4974,
      "Ġbegun": 4975,
      "Ġdefault": 4976,
      "ĠMarshal": 4977,
      "ĠJack": 4978,
      "Ġconsider": 4979,
      "Ġcompan": 4980,
      "Ġclam": 4981,
      "Ġwitch": 4982,
      "pute": 4983,
      "Ġaccused": 4984,
      "Stri": 4985,
      "Ġkindly": 4986,
      "Ġapply": 4987,
      "Ġchase": 4988,
      "Ġsmiles": 4989,
      "Ġbanner": 4990,
      "Ġcounty": 4991,
      "Ġfinds": 4992,
      "Ġcharged": 4993,
      "Cons": 4994,
      "Ġâĸ": 4995,
      "Ġbraw": 4996,
      "Ġ202": 4997,
      "Ġpassion": 4998,
      "oldier": 4999,
      "Love": 5000,
      "Clarence": 5001,
      "GREEN": 5002,
      "Ġstreets": 5003,
      "Ġserves": 5004,
      "Ġrevenged": 5005,
      "Ġadvice": 5006,
      "Ġassured": 5007,
      "Ġsends": 5008,
      "Ġsoundly": 5009,
      "Ġwinds": 5010,
      "Ġhanged": 5011,
      "Ġdarest": 5012,
      "attention": 5013,
      "Ġsupposed": 5014,
      "Ġafford": 5015,
      "itting": 5016,
      "Ġparliament": 5017,
      "ALONS": 5018,
      "Whither": 5019,
      "Ġhardly": 5020,
      "Ġinstruction": 5021,
      "Ġnobly": 5022,
      "Ġexecut": 5023,
      "Ġsky": 5024,
      "Ġveins": 5025,
      "Ġwaste": 5026,
      "Until": 5027,
      "Ġpieces": 5028,
      "Ġgarland": 5029,
      "Ġtraining": 5030,
      "Ġgrieve": 5031,
      "Ġforbear": 5032,
      "ĠPomfret": 5033,
      "Ġgroans": 5034,
      "Ġrecord": 5035,
      "Ġthrice": 5036,
      "Ġestate": 5037,
      "TYRR": 5038,
      "Ġdestroy": 5039,
      "Ġfamous": 5040,
      "Ġpitch": 5041,
      "About": 5042,
      "Ġurged": 5043,
      "Ġaffections": 5044,
      "ĠĠĠĠĠĠĠĠĠĠĠĠĠĠĠĠĠĠ": 5045,
      "Ġhaply": 5046,
      "DORSET": 5047,
      "Ġlusty": 5048,
      "iffusionHead": 5049,
      "Ġelder": 5050,
      "Ġstudy": 5051,
      "loader": 5052,
      "ĠSwarm": 5053,
      "Ġcounterfeit": 5054,
      "Gentlemen": 5055,
      "Ġarrived": 5056,
      "Ġbehalf": 5057,
      "Ġavoid": 5058,
      "Ġimprisonment": 5059,
      "untsman": 5060,
      "safe": 5061,
      "ĠApollo": 5062,
      "Ġrascal": 5063,
      "Ġtreacherous": 5064,
      "Ġprotector": 5065,
      "Ġrogue": 5066,
      "Ġsanctuary": 5067,
      "transpose": 5068,
      "Ġparticular": 5069,
      "Ġperpetual": 5070,
      "Ġgrievous": 5071,
      "Ġvirgin": 5072,
      "AEdile": 5073,
      "DINAND": 5074,
      "FERDINAND": 5075,
      "Ġworthi": 5076,
      "atcliff": 5077,
      "ĠConspir": 5078,
      "ALONSO": 5079,
      "TYRREL": 5080,
      "24": 5081,
      ";--": 5082,
      "Acc": 5083,
      "Bring": 5084,
      "Coriol": 5085,
      "DiffusionHead": 5086,
      "Keep": 5087,
      "MS": 5088,
      "Makes": 5089,
      "Vols": 5090,
      "aving": 5091,
      "br": 5092,
      "back": 5093,
      "cure": 5094,
      "dis": 5095,
      "dict": 5096,
      "erer": 5097,
      "fess": 5098,
      "fellow": 5099,
      "faced": 5100,
      "gn": 5101,
      "groom": 5102,
      "hidden": 5103,
      "iver": 5104,
      "iving": 5105,
      "ips": 5106,
      "ienn": 5107,
      "kind": 5108,
      "master": 5109,
      "music": 5110,
      "mlp": 5111,
      "nam": 5112,
      "rim": 5113,
      "ser": 5114,
      "say": 5115,
      "some": 5116,
      "sia": 5117,
      "ties": 5118,
      "upon": 5119,
      "vior": 5120,
      "work": 5121,
      "zz": 5122,
      "zer": 5123,
      "Ġ)": 5124,
      "ĠU": 5125,
      "Ġing": 5126,
      "Ġtim": 5127,
      "Ġach": 5128,
      "Ġapt": 5129,
      "Ġaunt": 5130,
      "Ġsal": 5131,
      "Ġsqu": 5132,
      "Ġsire": 5133,
      "Ġmaintain": 5134,
      "Ġwing": 5135,
      "Ġwide": 5136,
      "Ġwhip": 5137,
      "Ġwaking": 5138,
      "rey": 5139,
      "Ġbade": 5140,
      "orms": 5141,
      "erity": 5142,
      "erby": 5143,
      "Ġfb": 5144,
      "Ġfood": 5145,
      "Ġfrow": 5146,
      "Ġfeet": 5147,
      "Ġfires": 5148,
      "Ġfunction": 5149,
      "Ġfancy": 5150,
      "iter": 5151,
      "itation": 5152,
      "enant": 5153,
      "Ġct": 5154,
      "Ġcat": 5155,
      "Ġcher": 5156,
      "Ġcaught": 5157,
      "Ġcere": 5158,
      "Ġdow": 5159,
      "Ġdying": 5160,
      "Ġnod": 5161,
      "Ġnail": 5162,
      "esar": 5163,
      "essel": 5164,
      "Ġyond": 5165,
      "Ġyoke": 5166,
      "Ġthird": 5167,
      "Ġtoken": 5168,
      "Ġhor": 5169,
      "Ġhie": 5170,
      "Ġpu": 5171,
      "Ġpound": 5172,
      "Ġpurse": 5173,
      "Ġpier": 5174,
      "vet": 5175,
      "ancho": 5176,
      "sell": 5177,
      "semble": 5178,
      "Ġinqu": 5179,
      "Ġinference": 5180,
      "etite": 5181,
      "utenant": 5182,
      "Ġmelt": 5183,
      "Ġforced": 5184,
      "Ġforfeit": 5185,
      "ourse": 5186,
      "ourth": 5187,
      "adv": 5188,
      "Ġsting": 5189,
      "Ġstro": 5190,
      "Ġstout": 5191,
      "Ġstret": 5192,
      "Ġstroke": 5193,
      "alus": 5194,
      "Ġreck": 5195,
      "Ġrecon": 5196,
      "Ġrecom": 5197,
      "ric": 5198,
      "rick": 5199,
      "rac": 5200,
      "Ġdeceit": 5201,
      "Ġsore": 5202,
      "Ġsooth": 5203,
      "Ġsees": 5204,
      "amb": 5205,
      "ifest": 5206,
      "iffe": 5207,
      "Ġsue": 5208,
      "Ġsup": 5209,
      "Ġalliance": 5210,
      "ellion": 5211,
      "Ġvessel": 5212,
      "ilan": 5213,
      "ĠRMS": 5214,
      "ignt": 5215,
      "Ġknaves": 5216,
      "Ġconference": 5217,
      "Ġshun": 5218,
      "ĠMilan": 5219,
      "emper": 5220,
      "ĠSoldier": 5221,
      "outputs": 5222,
      "ares": 5223,
      "ĠGive": 5224,
      "ongs": 5225,
      "Ġblunt": 5226,
      "Ġbrid": 5227,
      "Ġsaying": 5228,
      "Ġunjust": 5229,
      "Ġunhappy": 5230,
      "ĠVal": 5231,
      "ĠAll": 5232,
      "ĠAway": 5233,
      "LIS": 5234,
      "Ġago": 5235,
      "Ġagree": 5236,
      "Ġprocess": 5237,
      "Ġsple": 5238,
      "Ġgraves": 5239,
      "Ġenforce": 5240,
      "ĠWell": 5241,
      "deem": 5242,
      "harge": 5243,
      "ensus": 5244,
      "irect": 5245,
      "ĠTrain": 5246,
      "ĠTitus": 5247,
      "Ġoffended": 5248,
      "Ġalack": 5249,
      "Ġalike": 5250,
      "Ġalthough": 5251,
      "Ġexchange": 5252,
      "Noble": 5253,
      "ĠDorset": 5254,
      "ĠDerby": 5255,
      "Ġabide": 5256,
      "Ġaboard": 5257,
      "open": 5258,
      "Soft": 5259,
      "Ġdesires": 5260,
      "Ġdescend": 5261,
      "Ġimm": 5262,
      "lib": 5263,
      "lict": 5264,
      "Ġbetray": 5265,
      "Ġbetimes": 5266,
      "Ġtwain": 5267,
      "Ġbreed": 5268,
      "Ġflood": 5269,
      "Ġflatt": 5270,
      "Ġnewly": 5271,
      "Ġparting": 5272,
      "Ġpartly": 5273,
      "Ġcalled": 5274,
      "Ġcommons": 5275,
      "Ġcommission": 5276,
      "Ġslaves": 5277,
      "clam": 5278,
      "Ġstanding": 5279,
      "ullus": 5280,
      "ĠFroth": 5281,
      "Ġwrink": 5282,
      "forced": 5283,
      "Ġcontext": 5284,
      "Ġcontempt": 5285,
      "Ġrain": 5286,
      "Ġrare": 5287,
      "Ġbearing": 5288,
      "thee": 5289,
      "aints": 5290,
      "Ġremorse": 5291,
      "(),": 5292,
      "Ġwhisper": 5293,
      "Ġresist": 5294,
      "Ġdefence": 5295,
      "ĠMarian": 5296,
      "Ġrust": 5297,
      "Ġruled": 5298,
      "Ġcompute": 5299,
      "Ġhousehold": 5300,
      "ercy": 5301,
      "Ġsets": 5302,
      "Ġclim": 5303,
      "Ġtrick": 5304,
      "\"))": 5305,
      "Ġpowerful": 5306,
      "Ġappetite": 5307,
      "Ġcharac": 5308,
      "Ġsmell": 5309,
      "Ġputs": 5310,
      "ethod": 5311,
      "Ġtreasure": 5312,
      "Ġtremble": 5313,
      "Ġhelm": 5314,
      "Norm": 5315,
      "Ġbrace": 5316,
      "Ġprice": 5317,
      "iety": 5318,
      "Ġmistrust": 5319,
      "Ġnative": 5320,
      "Ġboys": 5321,
      "Ġweeps": 5322,
      "Ġpatricians": 5323,
      "process": 5324,
      "Lords": 5325,
      "Ġbelow": 5326,
      "Ġfalsehood": 5327,
      "Ġsovereignt": 5328,
      "Ġassure": 5329,
      "Ġsecure": 5330,
      "Twere": 5331,
      "Ġsometimes": 5332,
      "Ġoaths": 5333,
      "Ġmerit": 5334,
      "Ġfaithful": 5335,
      "Ġsurely": 5336,
      "Ġsilent": 5337,
      "should": 5338,
      "Ġinstruments": 5339,
      "Cannot": 5340,
      "uffle": 5341,
      "Ġattended": 5342,
      "Ġmelancho": 5343,
      "Ġbeholding": 5344,
      "Ġregal": 5345,
      "Ġregard": 5346,
      "params": 5347,
      "Ġbreathed": 5348,
      "Ġprett": 5349,
      "Ġforgive": 5350,
      "Ġweakness": 5351,
      "Ġsickness": 5352,
      "Ġmouths": 5353,
      "Ġbooks": 5354,
      "Ġdirection": 5355,
      "Ġstopp": 5356,
      "Ġtempest": 5357,
      "Ġbarren": 5358,
      "Ġbeasts": 5359,
      "Ġunkind": 5360,
      "Ġtrumpet": 5361,
      "Ġshield": 5362,
      "Ġfreqs": 5363,
      "Leave": 5364,
      "logits": 5365,
      "Ġsuspect": 5366,
      "Ġobedient": 5367,
      "Ġreverence": 5368,
      "Ġentertainment": 5369,
      "Ġapparent": 5370,
      "ĠAnti": 5371,
      "Ġresults": 5372,
      "Ġ128": 5373,
      "|--------": 5374,
      "Ġgently": 5375,
      "Ġdetermined": 5376,
      "Ġholp": 5377,
      "Ġfairest": 5378,
      "shire": 5379,
      "Ġstabb": 5380,
      "Ġdisgrace": 5381,
      "Ġtyranny": 5382,
      "Ġlength": 5383,
      "Ġpilgr": 5384,
      "ĠSicilia": 5385,
      "Ġdetest": 5386,
      "Ġequal": 5387,
      "TOK": 5388,
      "Ġfashion": 5389,
      "Ġdignity": 5390,
      "Ġpolicy": 5391,
      "Ġjourney": 5392,
      "Ġaccording": 5393,
      "yrrel": 5394,
      "ĠExeter": 5395,
      "Ġimpossible": 5396,
      "alisbury": 5397,
      "Ġrejo": 5398,
      "ĠRosaline": 5399,
      "ĠMayor": 5400,
      "Volsce": 5401,
      "ienna": 5402,
      "Ġfroward": 5403,
      "Ġceremon": 5404,
      "Ġreconci": 5405,
      "ĠRMSNorm": 5406,
      "Ġsovereignty": 5407,
      "Ġmelancholy": 5408,
      ")\")": 5409,
      "._": 5410,
      ".--": 5411,
      "AD": 5412,
      "Cry": 5413,
      "Cond": 5414,
      "CLE": 5415,
      "Down": 5416,
      "Draw": 5417,
      "Each": 5418,
      "Emb": 5419,
      "FRO": 5420,
      "Fair": 5421,
      "Hail": 5422,
      "Im": 5423,
      "King": 5424,
      "LU": 5425,
      "Lay": 5426,
      "Lie": 5427,
      "Lady": 5428,
      "Mist": 5429,
      "Many": 5430,
      "OMEN": 5431,
      "PH": 5432,
      "Ri": 5433,
      "Son": 5434,
      "Somet": 5435,
      "Tush": 5436,
      "UR": 5437,
      "UGH": 5438,
      "Warwick": 5439,
      "Ye": 5440,
      "_(": 5441,
      "ape": 5442,
      "bod": 5443,
      "bation": 5444,
      "bos": 5445,
      "cat": 5446,
      "cary": 5447,
      "count": 5448,
      "cceed": 5449,
      "des": 5450,
      "down": 5451,
      "eg": 5452,
      "eve": 5453,
      "eat": 5454,
      "eval": 5455,
      "fr": 5456,
      "fra": 5457,
      "foot": 5458,
      "give": 5459,
      "hz": 5460,
      "iam": 5461,
      "ilf": 5462,
      "mas": 5463,
      "mem": 5464,
      "mong": 5465,
      "mory": 5466,
      "nm": 5467,
      "nes": 5468,
      "og": 5469,
      "ool": 5470,
      "opt": 5471,
      "ped": 5472,
      "pad": 5473,
      "pret": 5474,
      "pardon": 5475,
      "ted": 5476,
      "than": 5477,
      "tend": 5478,
      "teen": 5479,
      "task": 5480,
      "uint": 5481,
      "uild": 5482,
      "uries": 5483,
      "wd": 5484,
      "wear": 5485,
      "xe": 5486,
      "yaml": 5487,
      "Ġze": 5488,
      "ľħ": 5489,
      "Ġtres": 5490,
      "Ġtall": 5491,
      "Ġtakes": 5492,
      "Ġtarry": 5493,
      "Ġtaunt": 5494,
      "here": 5495,
      "Ġaxe": 5496,
      "Ġsalt": 5497,
      "Ġsnow": 5498,
      "Ġsamp": 5499,
      "oubt": 5500,
      "inal": 5501,
      "Ġmir": 5502,
      "Ġmood": 5503,
      "Ġmirth": 5504,
      "Ġwid": 5505,
      "Ġwest": 5506,
      "Ġwake": 5507,
      "Ġwink": 5508,
      "Ġbuck": 5509,
      "Ġbott": 5510,
      "ering": 5511,
      "erves": 5512,
      "Ġfin": 5513,
      "onation": 5514,
      "item": 5515,
      "itable": 5516,
      "eness": 5517,
      "Ġchall": 5518,
      "Ġciv": 5519,
      "Ġnet": 5520,
      "Ġnap": 5521,
      "Ġnumb": 5522,
      "Ġlent": 5523,
      "Ġlap": 5524,
      "arr": 5525,
      "Ġyes": 5526,
      "Ġthin": 5527,
      "Ġthir": 5528,
      "Ġthick": 5529,
      "Ġthread": 5530,
      "Ġtoad": 5531,
      "Ġtoil": 5532,
      "Ġtooth": 5533,
      "Ġhorn": 5534,
      "Ġope": 5535,
      "Ġoak": 5536,
      "Ġpi": 5537,
      "Ġpill": 5538,
      "Ġpause": 5539,
      "othes": 5540,
      "stable": 5541,
      "stery": 5542,
      "aning": 5543,
      "answer": 5544,
      "omach": 5545,
      "Ġinv": 5546,
      "Ġinfection": 5547,
      "Ġmystery": 5548,
      "imble": 5549,
      "imation": 5550,
      "imizer": 5551,
      "images": 5552,
      "Ġmemory": 5553,
      "Ġforso": 5554,
      "ouring": 5555,
      "Ġweek": 5556,
      "illy": 5557,
      "illing": 5558,
      "herit": 5559,
      "idx": 5560,
      "Ġstick": 5561,
      "Ġstumble": 5562,
      "Ġrear": 5563,
      "Ġrece": 5564,
      "Ġrent": 5565,
      "Ġreap": 5566,
      "Ġrepose": 5567,
      "Ġredeem": 5568,
      "asp": 5569,
      "Ġdeck": 5570,
      "Ġdecl": 5571,
      "Ġdelic": 5572,
      "Ġdearest": 5573,
      "Ġlift": 5574,
      "Ġliken": 5575,
      "Ġseldom": 5576,
      "Ġsepul": 5577,
      "ckpoint": 5578,
      "vert": 5579,
      "Ġlover": 5580,
      "Ġlovest": 5581,
      "Ġshare": 5582,
      "ushy": 5583,
      "ushes": 5584,
      "Ġsuitor": 5585,
      "Ġsucceed": 5586,
      "thon": 5587,
      "Ġanch": 5588,
      "Ġvar": 5589,
      "Ġvill": 5590,
      "Ġvol": 5591,
      "Ġvouch": 5592,
      "aker": 5593,
      "Ġfab": 5594,
      "Ġfawn": 5595,
      "Ġknot": 5596,
      "artius": 5597,
      "icro": 5598,
      "icles": 5599,
      "ĠMin": 5600,
      "ĠMult": 5601,
      "ĠSc": 5602,
      "ĠSalisbury": 5603,
      "âĶĢâĶĢâĶĢâĶĢâĶ": 5604,
      "Ġmanage": 5605,
      "ĠLic": 5606,
      "ĠLau": 5607,
      "ĠLartius": 5608,
      "ersu": 5609,
      "Ġhated": 5610,
      "LOUGH": 5611,
      "Ġswain": 5612,
      "ĢâĶĺ": 5613,
      "Ġlets": 5614,
      "Ġunwill": 5615,
      "Ġuncles": 5616,
      "ĠVen": 5617,
      "ĠVienna": 5618,
      "ĠHis": 5619,
      "Ġleague": 5620,
      "Ġquant": 5621,
      "Whether": 5622,
      "ĠPIL": 5623,
      "ĠPerd": 5624,
      "Ġjot": 5625,
      "Ġride": 5626,
      "Ġspl": 5627,
      "Ġspr": 5628,
      "Ġspy": 5629,
      "cies": 5630,
      "Ġshoulder": 5631,
      "ĠWIL": 5632,
      "agues": 5633,
      "Ġdeaths": 5634,
      "Ġheartily": 5635,
      "Ġmarks": 5636,
      "Ġwholesome": 5637,
      "Ġselfsame": 5638,
      "ĠTar": 5639,
      "ĠTell": 5640,
      "ĠTyrrel": 5641,
      "Ġoffic": 5642,
      "Ġdisple": 5643,
      "Ġdisgu": 5644,
      "Ġexist": 5645,
      "Ġexerc": 5646,
      "Ġexcept": 5647,
      "ĠDC": 5648,
      "ĠDe": 5649,
      "Ġabused": 5650,
      "Ġthinking": 5651,
      "Ġdescent": 5652,
      "Ġwarri": 5653,
      "ably": 5654,
      "Ġbred": 5655,
      "perm": 5656,
      "range": 5657,
      "Ġripe": 5658,
      "Ġheavenly": 5659,
      "uda": 5660,
      "Ġperhaps": 5661,
      "Ġsweeter": 5662,
      "Ġscold": 5663,
      "Ġscandal": 5664,
      "Ġrail": 5665,
      "Ġraised": 5666,
      "Ġremove": 5667,
      "Ġremoved": 5668,
      "ĠLords": 5669,
      "Ġwhit": 5670,
      "Ġbegan": 5671,
      "Ġretire": 5672,
      "Ġmodest": 5673,
      "Ġmodesty": 5674,
      "Ġfeather": 5675,
      "Ġharsh": 5676,
      "aled": 5677,
      "__\":": 5678,
      "Ġclothes": 5679,
      "Ġkeeper": 5680,
      "putation": 5681,
      "Ġaccident": 5682,
      "Ġaccursed": 5683,
      "Ġyounger": 5684,
      "Ġyoungest": 5685,
      "Ġappointed": 5686,
      "Ġsubtle": 5687,
      "Ġsubstit": 5688,
      "Ġ10": 5689,
      "RIAN": 5690,
      "Ġdearly": 5691,
      "Ġrights": 5692,
      "fortune": 5693,
      "Ġâľħ": 5694,
      "Ġminds": 5695,
      "Ġ28": 5696,
      "Ġprick": 5697,
      "clear": 5698,
      "Ġconfirm": 5699,
      "Ġdevotion": 5700,
      "Ġattn": 5701,
      "ocate": 5702,
      "Ġmischance": 5703,
      "Ġafternoon": 5704,
      "Ġmeeting": 5705,
      "Ġcareless": 5706,
      "Uncle": 5707,
      "Anon": 5708,
      "Ġgriefs": 5709,
      "Ġgrat": 5710,
      "Ġhuman": 5711,
      "Ġsteeds": 5712,
      "Ġcounc": 5713,
      "Ġlayer": 5714,
      "Ġserved": 5715,
      "Ġcurt": 5716,
      "Ġadventure": 5717,
      "Ġcountrymen": 5718,
      "Ġvisage": 5719,
      "Ġvirtues": 5720,
      "Ġwindows": 5721,
      "Ġbeauteous": 5722,
      "Ġstranger": 5723,
      "Ġyielded": 5724,
      "Ġappeal": 5725,
      "Ġsupply": 5726,
      "Ġcraves": 5727,
      "Ġcraft": 5728,
      "Ġcommonwe": 5729,
      "Ġ32": 5730,
      "Ġmonument": 5731,
      "Ġmonstrous": 5732,
      "parent": 5733,
      "Ġgrowing": 5734,
      "Didst": 5735,
      "soever": 5736,
      "ĠHeaven": 5737,
      "Ġheirs": 5738,
      "Ġpoints": 5739,
      "Ġtrusty": 5740,
      "Ġstronger": 5741,
      "Ġinfant": 5742,
      "Ġexecute": 5743,
      "Ġforeign": 5744,
      "Ġincen": 5745,
      "Ġfeeling": 5746,
      "Ġburst": 5747,
      "Ġplainly": 5748,
      "Ġabsolute": 5749,
      "Ġfourteen": 5750,
      "Ġredress": 5751,
      "Ġfrowns": 5752,
      "Ġwriting": 5753,
      "Ġsatisfy": 5754,
      "ollow": 5755,
      "Ġservants": 5756,
      "Ġblem": 5757,
      "Ġbridegroom": 5758,
      "Ġbabes": 5759,
      "Ġgallant": 5760,
      "banished": 5761,
      "Ġrebellion": 5762,
      "Ġfierce": 5763,
      "Ġshadows": 5764,
      "Ġpleasing": 5765,
      "ĢâĶĢâĶĢâĶĢâĶĢâĶĢâĶĢâĶĢâĶĢâĶĢâĶĢâĶĢâĶĢâĶĢâĶĢâĶĢâĶĢâĶĢâĶĢâĶĢâĶĢâĶĢâĶĢâĶĢâĶĢâĶĢâĶĢâĶĢâĶĢâĶĢâĶĢâĶĢâĶ": 5766,
      "024": 5767,
      "Ġobject": 5768,
      "Ġforswear": 5769,
      "Ġrefuse": 5770,
      "EXT": 5771,
      "Ġbigger": 5772,
      "otted": 5773,
      "embeds": 5774,
      "Among": 5775,
      "Ġslip": 5776,
      "[:,": 5777,
      "Ġgaze": 5778,
      "where": 5779,
      "Ġmonths": 5780,
      "Betw": 5781,
      "Better": 5782,
      "steps": 5783,
      "Ġchaste": 5784,
      "Ġdetermine": 5785,
      "ĠItaly": 5786,
      "Ġfairer": 5787,
      "Ġshrewd": 5788,
      "Ġdismal": 5789,
      "Ġacquaint": 5790,
      "ĠIndiaAI": 5791,
      "Ġprophet": 5792,
      "Ġescape": 5793,
      "Ġeagle": 5794,
      "rogram": 5795,
      "othecary": 5796,
      "Ġrepeal": 5797,
      "Commend": 5798,
      "Ġiron": 5799,
      "Ġtorture": 5800,
      "Ġrenowned": 5801,
      "Ġneglect": 5802,
      "Return": 5803,
      "Remember": 5804,
      "Ġwondrous": 5805,
      "Ġballad": 5806,
      "Ġintelligence": 5807,
      "Ġtrembling": 5808,
      "Ġpenitent": 5809,
      "âĶĢâĶĢâĶĢâĶĢâĶĢâĶĢâĶĢâĶĢâĶĢâĶĢâĶĲ": 5810,
      "Ġpadding": 5811,
      "Through": 5812,
      "Ġshroud": 5813,
      "Ġadversaries": 5814,
      "Ġpurchase": 5815,
      "Ġprivilege": 5816,
      "ĠâĶĮâĶĢâĶĢâĶĢâĶĢâĶĢâĶĢâĶĢâĶĢâĶĢâĶĢâĶĲ": 5817,
      "Ġsullen": 5818,
      "Ġconceal": 5819,
      "Ġâĸ¼": 5820,
      "ĠConspirator": 5821,
      "Coriolanus": 5822,
      "Ġdowry": 5823,
      "Ġpierce": 5824,
      "Ġstrokes": 5825,
      "Ġflatterer": 5826,
      "ĠMariana": 5827,
      "ADRIAN": 5828,
      "CLEOMEN": 5829,
      "FROTH": 5830,
      "Ġzeal": 5831,
      "Ġtrespass": 5832,
      "Ġbottom": 5833,
      "Ġcivil": 5834,
      "Ġthirty": 5835,
      "Ġsepulch": 5836,
      "LOUGHBY": 5837,
      "ĠPerdita": 5838,
      "ĠWILLOUGHBY": 5839,
      "Ġexercise": 5840,
      "CLEOMENES": 5841,
      ");": 5842,
      ".\"\"\"": 5843,
      "40": 5844,
      "AT": 5845,
      "Aw": 5846,
      "BAR": 5847,
      "Courage": 5848,
      "Div": 5849,
      "Fl": 5850,
      "Find": 5851,
      "Get": 5852,
      "Ho": 5853,
      "Kn": 5854,
      "List": 5855,
      "Men": 5856,
      "Making": 5857,
      "Methought": 5858,
      "NARD": 5859,
      "Name": 5860,
      "Oh": 5861,
      "PI": 5862,
      "Pur": 5863,
      "Petruchio": 5864,
      "Rather": 5865,
      "RUT": 5866,
      "Sound": 5867,
      "Tranio": 5868,
      "Villain": 5869,
      "Wit": 5870,
      "acles": 5871,
      "bus": 5872,
      "bone": 5873,
      "boy": 5874,
      "cra": 5875,
      "cest": 5876,
      "cue": 5877,
      "clip": 5878,
      "cuda": 5879,
      "ded": 5880,
      "dess": 5881,
      "done": 5882,
      "duke": 5883,
      "dtype": 5884,
      "got": 5885,
      "ghan": 5886,
      "great": 5887,
      "gentle": 5888,
      "gling": 5889,
      "iar": 5890,
      "join": 5891,
      "lr": 5892,
      "lves": 5893,
      "made": 5894,
      "nken": 5895,
      "nicious": 5896,
      "part": 5897,
      "spe": 5898,
      "sire": 5899,
      "sop": 5900,
      "sues": 5901,
      "vive": 5902,
      "vied": 5903,
      "wit": 5904,
      "wid": 5905,
      "Ġ%": 5906,
      "Ġq": 5907,
      "Ġed": 5908,
      "ĠNo": 5909,
      "Ġtou": 5910,
      "Ġtig": 5911,
      "Ġtree": 5912,
      "Ġtail": 5913,
      "Ġale": 5914,
      "inct": 5915,
      "Ġmil": 5916,
      "Ġmethought": 5917,
      "Ġward": 5918,
      "Ġwakes": 5919,
      "Ġwaves": 5920,
      "has": 5921,
      "Ġbon": 5922,
      "Ġbill": 5923,
      "Ġbore": 5924,
      "Ġbag": 5925,
      "Ġbrown": 5926,
      "Ġborrow": 5927,
      "orough": 5928,
      "ergy": 5929,
      "Ġfish": 5930,
      "Ġfret": 5931,
      "Ġfix": 5932,
      "oned": 5933,
      "onest": 5934,
      "ital": 5935,
      "itic": 5936,
      "enge": 5937,
      "Ġcrow": 5938,
      "Ġcait": 5939,
      "Ġdower": 5940,
      "Ġnest": 5941,
      "Ġnice": 5942,
      "esu": 5943,
      "Ġlur": 5944,
      "Ġlance": 5945,
      "Ġlower": 5946,
      "Ġluck": 5947,
      "arried": 5948,
      "arange": 5949,
      "Ġyon": 5950,
      "Ġthie": 5951,
      "Ġthirst": 5952,
      "Ġthumb": 5953,
      "Ġtomorrow": 5954,
      "Ġhom": 5955,
      "Ġhig": 5956,
      "Ġhind": 5957,
      "Ġhire": 5958,
      "Ġhoney": 5959,
      "Ġped": 5960,
      "Ġpear": 5961,
      "Ġpage": 5962,
      "Ġpick": 5963,
      "hath": 5964,
      "Ġheat": 5965,
      "Ġheels": 5966,
      "ater": 5967,
      "atri": 5968,
      "state": 5969,
      "ingers": 5970,
      "owl": 5971,
      "Ġgid": 5972,
      "Ġgather": 5973,
      "sey": 5974,
      "Ġbere": 5975,
      "Ġbefall": 5976,
      "Ġink": 5977,
      "Ġhare": 5978,
      "Ġhaught": 5979,
      "Ġhabit": 5980,
      "utf": 5981,
      "ĠĠĠĠĠ": 5982,
      "chief": 5983,
      "Ġnoted": 5984,
      "keley": 5985,
      "Ġweal": 5986,
      "Ġwealth": 5987,
      "ado": 5988,
      "hern": 5989,
      "Ġwithdraw": 5990,
      "Ġitem": 5991,
      "Ġstale": 5992,
      "Ġstern": 5993,
      "Ġstomach": 5994,
      "Ġrepro": 5995,
      "Ġrevel": 5996,
      "ases": 5997,
      "rif": 5998,
      "rich": 5999,
      "rible": 6000,
      "raid": 6001,
      "rage": 6002,
      "Ġhist": 6003,
      "urg": 6004,
      "urrey": 6005,
      "order": 6006,
      "INE": 6007,
      "Ġdem": 6008,
      "Ġdeaf": 6009,
      "Ġlivery": 6010,
      "Ġliking": 6011,
      "Ġsol": 6012,
      "ainst": 6013,
      "ample": 6014,
      "Ġlock": 6015,
      "Ġshapes": 6016,
      "ushing": 6017,
      "Ġdove": 6018,
      "Ġdogs": 6019,
      "Ġdozen": 6020,
      "Ġwills": 6021,
      "Ġsuits": 6022,
      "ardel": 6023,
      "Ġhers": 6024,
      "Ġanointed": 6025,
      "Ġneat": 6026,
      "ĠCon": 6027,
      "ĠCounty": 6028,
      "Ġshallow": 6029,
      "Ġvent": 6030,
      "ola": 6031,
      "olve": 6032,
      "olved": 6033,
      "Ġconceive": 6034,
      "Ġprime": 6035,
      "Ġshines": 6036,
      "Ġupright": 6037,
      "eliver": 6038,
      "ĠSe": 6039,
      "ĠSee": 6040,
      "ĠShore": 6041,
      "Ġgoods": 6042,
      "iege": 6043,
      "Ġmanifest": 6044,
      "aughan": 6045,
      "Ġamiss": 6046,
      "ĠGree": 6047,
      "Ġblast": 6048,
      "ept": 6049,
      "eping": 6050,
      "orted": 6051,
      "Ġsirs": 6052,
      "Ġswore": 6053,
      "Ġsweat": 6054,
      "Ġthereby": 6055,
      "Ġorator": 6056,
      "ĠOur": 6057,
      "ĠOff": 6058,
      "Ġarrest": 6059,
      "ĠBy": 6060,
      "Ġunst": 6061,
      "Ġunse": 6062,
      "pped": 6063,
      "ĠHim": 6064,
      "Ġworm": 6065,
      "ĠASIC": 6066,
      "ĠAgent": 6067,
      "ĠPlease": 6068,
      "ĠPETER": 6069,
      "ptial": 6070,
      "uned": 6071,
      "unate": 6072,
      "Ġages": 6073,
      "love": 6074,
      "Ġrans": 6075,
      "Ġproclam": 6076,
      "ueen": 6077,
      "Ġspit": 6078,
      "Ġlikely": 6079,
      "iced": 6080,
      "Ġplaces": 6081,
      "Ġmadness": 6082,
      "Ġencode": 6083,
      "ĠWilt": 6084,
      "igned": 6085,
      "Ġtrunk": 6086,
      "Ġboast": 6087,
      "Ġbool": 6088,
      "device": 6089,
      "harged": 6090,
      "Ġsomewhat": 6091,
      "ĠTrans": 6092,
      "Ġoffices": 6093,
      "Ġdisease": 6094,
      "Ġalms": 6095,
      "Ġpeev": 6096,
      "Ġabuse": 6097,
      "Ġtelling": 6098,
      "Ġlooked": 6099,
      "Ġwhereon": 6100,
      "Whereto": 6101,
      "lied": 6102,
      "ables": 6103,
      "Ġfearing": 6104,
      "Ġflow": 6105,
      "Ġflint": 6106,
      "Ġflourish": 6107,
      "bert": 6108,
      "Ġ\"__": 6109,
      "Ġparted": 6110,
      "Ġpartner": 6111,
      "Ġgreatness": 6112,
      "rank": 6113,
      "Ġcommunication": 6114,
      "Ġpernicious": 6115,
      "ĠFare": 6116,
      "Ġscatter": 6117,
      "Ġscratch": 6118,
      "Ġmoves": 6119,
      "Ġrack": 6120,
      "Ġkeys": 6121,
      "Ġgraced": 6122,
      "Ġbegu": 6123,
      "Ġbeget": 6124,
      "cheth": 6125,
      "Ġwolf": 6126,
      "Ġchildish": 6127,
      "Ġstays": 6128,
      "osing": 6129,
      "ercing": 6130,
      "attern": 6131,
      "Ġcls": 6132,
      "Ġtrif": 6133,
      "Step": 6134,
      "Ġstride": 6135,
      "headed": 6136,
      "Ġsubd": 6137,
      "Ġsubstance": 6138,
      "Ġbank": 6139,
      "Ġbacks": 6140,
      "twill": 6141,
      "Ġforthwith": 6142,
      "Ġcharm": 6143,
      "Ġ20": 6144,
      "Ġlaws": 6145,
      "ĠAnne": 6146,
      "Does": 6147,
      "Ġlightning": 6148,
      "Ġroyalty": 6149,
      "comp": 6150,
      "Ġbesides": 6151,
      "Ġhappily": 6152,
      "ontes": 6153,
      "Ġsorrows": 6154,
      "Ġcareful": 6155,
      "Ġlesser": 6156,
      "Ġsleeping": 6157,
      "Ġstrive": 6158,
      "Ġserp": 6159,
      "pense": 6160,
      "Ġdrag": 6161,
      "Ġsaved": 6162,
      "Ġwanting": 6163,
      "Ġgrew": 6164,
      "Ġreply": 6165,
      "Ġbreathing": 6166,
      "module": 6167,
      "Ġgenerate": 6168,
      "ramed": 6169,
      "Ġbeaut": 6170,
      "Ġhangs": 6171,
      "hamed": 6172,
      "tokens": 6173,
      "IDAM": 6174,
      "Ġdrunken": 6175,
      "Ġbeats": 6176,
      "Ġaffords": 6177,
      "Ġmonster": 6178,
      "Ġmonarch": 6179,
      "Ġsooner": 6180,
      "Ġsights": 6181,
      "Ġsadness": 6182,
      "Ġmetal": 6183,
      "Ġdiscourse": 6184,
      "Ġsuffic": 6185,
      "Ġtype": 6186,
      "Ġquarter": 6187,
      "Ġminute": 6188,
      "Ġcorrupt": 6189,
      "Ġcoronation": 6190,
      "Ġnobility": 6191,
      "Ġcarried": 6192,
      "Ġrank": 6193,
      "Ġvel": 6194,
      "Ġpraises": 6195,
      "parse": 6196,
      "Ġencod": 6197,
      "Ġburnt": 6198,
      "scalus": 6199,
      "exp": 6200,
      "ĠTool": 6201,
      "Ġburns": 6202,
      "Ġburning": 6203,
      "Ġbleeding": 6204,
      "Ġundo": 6205,
      "Ġblessing": 6206,
      "Ġshook": 6207,
      "umbling": 6208,
      "Ġsenseless": 6209,
      "Ġbitterly": 6210,
      "Ġcaps": 6211,
      "Ġlimit": 6212,
      "Ġlimbs": 6213,
      "Ġsacrif": 6214,
      "Ġsuccession": 6215,
      "Ġactions": 6216,
      "Ġmidnight": 6217,
      "Ġviolence": 6218,
      "Ġtriumphant": 6219,
      "Ġrebels": 6220,
      "Ġpossession": 6221,
      "Ġpitiful": 6222,
      "preview": 6223,
      "Ġships": 6224,
      "Ġinjury": 6225,
      "Ġurge": 6226,
      "Ġexecutioner": 6227,
      "March": 6228,
      "Marcius": 6229,
      "Ġmeddle": 6230,
      "Ġoccup": 6231,
      "ĠCaesar": 6232,
      "Ġchurchyard": 6233,
      "Ġignorance": 6234,
      "Ġsaints": 6235,
      "Ġthreatening": 6236,
      "Ġunfold": 6237,
      "Ġguests": 6238,
      "Ġlogits": 6239,
      "ĠWilliam": 6240,
      "Ġtransport": 6241,
      "Ġhung": 6242,
      "Ġhungry": 6243,
      "Ġinclined": 6244,
      "Ġextremity": 6245,
      "Ġbirds": 6246,
      "Ġcovert": 6247,
      "Ġjoints": 6248,
      "Ġprevented": 6249,
      "Ġtyrann": 6250,
      "Ġstatue": 6251,
      "Ġnecessity": 6252,
      "Ġtroops": 6253,
      "Ġsenses": 6254,
      "Ġwager": 6255,
      "Ġconjure": 6256,
      "Ġbands": 6257,
      "Ġweapon": 6258,
      "ribunes": 6259,
      "Ġangel": 6260,
      "Ġspoil": 6261,
      "Ġ255": 6262,
      "coder": 6263,
      "freqs": 6264,
      "Ġcensure": 6265,
      "ARCHIDAM": 6266,
      "ĠDido": 6267,
      "Ġnuptial": 6268,
      "ĠElbow": 6269,
      "Ġopposite": 6270,
      "Ġtapster": 6271,
      "ĠBerkeley": 6272,
      "Ġjewel": 6273,
      "Ġruthless": 6274,
      "Ġdispersed": 6275,
      "Ġrapier": 6276,
      "Ġcompanion": 6277,
      "Ġclamour": 6278,
      "Strike": 6279,
      "Ġexecuted": 6280,
      "zeros": 6281,
      "Ġcherish": 6282,
      "Ġstretch": 6283,
      "ambio": 6284,
      "Ġspleen": 6285,
      "Ġimmortal": 6286,
      "Ġcharacter": 6287,
      "Ġprettiest": 6288,
      "Ġrejoice": 6289,
      "frame": 6290,
      "memory": 6291,
      "Ġchallenge": 6292,
      "Ġlikeness": 6293,
      "ĠLicio": 6294,
      "ĠLaurence": 6295,
      "Ġofficers": 6296,
      "Ġwarriors": 6297,
      "permute": 6298,
      "Ġcommonwealth": 6299,
      "Ġsepulchre": 6300,
      "BARNARD": 6301,
      "RUTLAND": 6302,
      "Ġcaitiff": 6303,
      "Ġgiddy": 6304,
      "ĠOfficer": 6305,
      "ĠWiltshire": 6306,
      "ĠTransformer": 6307,
      "Ġpeevish": 6308,
      "ARCHIDAMUS": 6309,
      "BARNARDINE": 6310,
      "\"{": 6311,
      ")).": 6312,
      ".\")": 6313,
      "192": 6314,
      "60": 6315,
      "68": 6316,
      "Bre": 6317,
      "Bra": 6318,
      "BAN": 6319,
      "CRO": 6320,
      "CIA": 6321,
      "El": 6322,
      "Er": 6323,
      "Ever": 6324,
      "Eng": 6325,
      "EPH": 6326,
      "Full": 6327,
      "Follow": 6328,
      "Ga": 6329,
      "Gard": 6330,
      "Gentleman": 6331,
      "GOT": 6332,
      "Hic": 6333,
      "Henry": 6334,
      "Hortensio": 6335,
      "Lu": 6336,
      "Live": 6337,
      "Mis": 6338,
      "Mon": 6339,
      "MOR": 6340,
      "MEL": 6341,
      "Much": 6342,
      "Old": 6343,
      "Open": 6344,
      "Play": 6345,
      "Patience": 6346,
      "Persu": 6347,
      "Qu": 6348,
      "Run": 6349,
      "Saw": 6350,
      "Six": 6351,
      "SIR": 6352,
      "Toward": 6353,
      "Virt": 6354,
      "WEST": 6355,
      "Write": 6356,
      "Women": 6357,
      "Woe": 6358,
      "WAT": 6359,
      "Yield": 6360,
      "ZWAT": 6361,
      "]:": 6362,
      "ald": 6363,
      "aze": 6364,
      "bble": 6365,
      "blocks": 6366,
      "cri": 6367,
      "cus": 6368,
      "cap": 6369,
      "custom": 6370,
      "ead": 6371,
      "egr": 6372,
      "gl": 6373,
      "gged": 6374,
      "hot": 6375,
      "horse": 6376,
      "iban": 6377,
      "json": 6378,
      "live": 6379,
      "lab": 6380,
      "large": 6381,
      "may": 6382,
      "miss": 6383,
      "mask": 6384,
      "maid": 6385,
      "method": 6386,
      "oo": 6387,
      "off": 6388,
      "ph": 6389,
      "por": 6390,
      "post": 6391,
      "pray": 6392,
      "rors": 6393,
      "sen": 6394,
      "side": 6395,
      "ually": 6396,
      "vided": 6397,
      "wor": 6398,
      "war": 6399,
      "wing": 6400,
      "water": 6401,
      "zed": 6402,
      "Ġice": 6403,
      "Ġought": 6404,
      "ĠThy": 6405,
      "Ġeter": 6406,
      "Ġ])": 6407,
      "Ġtard": 6408,
      "Ġtack": 6409,
      "Ġtied": 6410,
      "Ġtired": 6411,
      "Ġtakest": 6412,
      "Ġah": 6413,
      "Ġsn": 6414,
      "Ġsim": 6415,
      "Ġsed": 6416,
      "Ġsess": 6417,
      "Ġsau": 6418,
      "Ġsings": 6419,
      "Ġsought": 6420,
      "Ġsounds": 6421,
      "Ġsides": 6422,
      "Ġsilly": 6423,
      "oured": 6424,
      "inous": 6425,
      "Ġmould": 6426,
      "Ġwet": 6427,
      "Ġwax": 6428,
      "Ġwaked": 6429,
      "reg": 6430,
      "reet": 6431,
      "reant": 6432,
      "reme": 6433,
      "reason": 6434,
      "hand": 6435,
      "habit": 6436,
      "ndarray": 6437,
      "Ġbay": 6438,
      "Ġbent": 6439,
      "Ġbru": 6440,
      "Ġbol": 6441,
      "Ġbatt": 6442,
      "Ġbalm": 6443,
      "ishes": 6444,
      "isement": 6445,
      "erily": 6446,
      "Ġfu": 6447,
      "Ġfil": 6448,
      "Ġfant": 6449,
      "Ġfray": 6450,
      "Ġfelt": 6451,
      "Ġfardel": 6452,
      "onus": 6453,
      "ened": 6454,
      "envol": 6455,
      "Ġcent": 6456,
      "Ġcop": 6457,
      "Ġcode": 6458,
      "Ġcram": 6459,
      "Ġnar": 6460,
      "Ġnumpy": 6461,
      "Ġyr": 6462,
      "Ġtops": 6463,
      "Ġomit": 6464,
      "Ġpent": 6465,
      "Ġphi": 6466,
      "Ġpace": 6467,
      "Ġpaint": 6468,
      "Ġpush": 6469,
      "Ġpaid": 6470,
      "Ġpalm": 6471,
      "Ġpomp": 6472,
      "Ġpattern": 6473,
      "Ġhera": 6474,
      "Ġheight": 6475,
      "athe": 6476,
      "athed": 6477,
      "ann": 6478,
      "omes": 6479,
      "Ġgn": 6480,
      "Ġgap": 6481,
      "Ġgains": 6482,
      "Ġgaunt": 6483,
      "seem": 6484,
      "sets": 6485,
      "Ġbeams": 6486,
      "Ġhail": 6487,
      "ednes": 6488,
      "utch": 6489,
      "irs": 6490,
      "iring": 6491,
      "Ġmew": 6492,
      "Ġmemb": 6493,
      "Ġnotes": 6494,
      "Ġissu": 6495,
      "Ġfors": 6496,
      "Ġforty": 6497,
      "iders": 6498,
      "Ġstorms": 6499,
      "alter": 6500,
      "Ġreach": 6501,
      "Ġreputation": 6502,
      "ril": 6503,
      "riel": 6504,
      "racious": 6505,
      "urgh": 6506,
      "urtis": 6507,
      "Ġdepose": 6508,
      "Ġlions": 6509,
      "Ġlikes": 6510,
      "Ġlivest": 6511,
      "Ġsoil": 6512,
      "Ġsoci": 6513,
      "Ġaspect": 6514,
      "Ġashamed": 6515,
      "Ġsevere": 6516,
      "Ġseated": 6517,
      "Ġseized": 6518,
      "ARLIS": 6519,
      "hire": 6520,
      "verty": 6521,
      "Ġloop": 6522,
      "Ġlovers": 6523,
      "pel": 6524,
      "pear": 6525,
      "peach": 6526,
      "Thine": 6527,
      "Things": 6528,
      "Ġalleg": 6529,
      "ruption": 6530,
      "three": 6531,
      "Ġherd": 6532,
      "tering": 6533,
      "ellows": 6534,
      "Ġourself": 6535,
      "ĠCom": 6536,
      "ĠCross": 6537,
      "ĠCurtis": 6538,
      "ĠCARLIS": 6539,
      "Ġvast": 6540,
      "Ġvideo": 6541,
      "iliar": 6542,
      "ĠRaven": 6543,
      "ĠRatcliff": 6544,
      "igent": 6545,
      "igonus": 6546,
      "uler": 6547,
      "olar": 6548,
      "olks": 6549,
      "Ġfact": 6550,
      "Ġconsequ": 6551,
      "ORGE": 6552,
      "arts": 6553,
      "Ġshru": 6554,
      "ics": 6555,
      "ĠMistress": 6556,
      "ĠSy": 6557,
      "ĠShall": 6558,
      "ĠSurrey": 6559,
      "ĠSCRO": 6560,
      "ĠEm": 6561,
      "ĠEly": 6562,
      "ĠELY": 6563,
      "ĠEscalus": 6564,
      "iece": 6565,
      "Ġamain": 6566,
      "Ġambit": 6567,
      "Ġamends": 6568,
      "Ġamorous": 6569,
      "Ġblk": 6570,
      "ĠLook": 6571,
      "resh": 6572,
      "resize": 6573,
      "allel": 6574,
      "Ġswo": 6575,
      "Ġswears": 6576,
      "Ġknowing": 6577,
      "Ġbrat": 6578,
      "Ġarr": 6579,
      "Ġarray": 6580,
      "ĠBushy": 6581,
      "ĠBurg": 6582,
      "Ġusing": 6583,
      "Ġgoose": 6584,
      "Ġgoss": 6585,
      "Ġune": 6586,
      "Ġunl": 6587,
      "Ġunp": 6588,
      "ĠVision": 6589,
      "ĠVideo": 6590,
      "ĠVaughan": 6591,
      "ĠHark": 6592,
      "ĠHuntsman": 6593,
      "Ġleg": 6594,
      "Ġlevel": 6595,
      "Ġlewd": 6596,
      "ĠAb": 6597,
      "ĠAr": 6598,
      "ĠAs": 6599,
      "ĠAt": 6600,
      "ĠApp": 6601,
      "LIBAN": 6602,
      "umed": 6603,
      "Ġaged": 6604,
      "ists": 6605,
      "isting": 6606,
      "Ġhoar": 6607,
      "losop": 6608,
      "Ġrate": 6609,
      "Ġrouse": 6610,
      "Ġproved": 6611,
      "Ġproportion": 6612,
      "Ġspread": 6613,
      "Ġgrain": 6614,
      "Ġlikewise": 6615,
      "Ġplan": 6616,
      "Ġoutrage": 6617,
      "ĠWas": 6618,
      "ĠWould": 6619,
      "ĠWels": 6620,
      "agot": 6621,
      "aged": 6622,
      "ISC": 6623,
      "Ġpos": 6624,
      "Ġpoverty": 6625,
      "Ġspeaking": 6626,
      "ELAND": 6627,
      "ickle": 6628,
      "CALIBAN": 6629,
      "idered": 6630,
      "decode": 6631,
      "Withdraw": 6632,
      "Ġmarvel": 6633,
      "Ġmarvell": 6634,
      "harat": 6635,
      "Ġdisin": 6636,
      "Ġexample": 6637,
      "Ġintegr": 6638,
      "ĠDian": 6639,
      "ĠData": 6640,
      "Ġabund": 6641,
      "Ġimper": 6642,
      "Whereof": 6643,
      "liction": 6644,
      "Ġbetide": 6645,
      "constant": 6646,
      "Ġbread": 6647,
      "Ġflat": 6648,
      "Ġ\"\"": 6649,
      "Ġcouple": 6650,
      "Ġprefer": 6651,
      "Behold": 6652,
      "Ġparties": 6653,
      "perience": 6654,
      "ranch": 6655,
      "Ġriches": 6656,
      "Ġslight": 6657,
      "Ġ(\"": 6658,
      "Ġsweetly": 6659,
      "ulls": 6660,
      "ĠFIT": 6661,
      "Ġcoat": 6662,
      "Ġcook": 6663,
      "Ġcontro": 6664,
      "Ġcontents": 6665,
      "Ġraven": 6666,
      "Ġworldly": 6667,
      "Ġnights": 6668,
      "them": 6669,
      "Ġkey": 6670,
      "Ġdownright": 6671,
      "Ġpresume": 6672,
      "Ġpreserve": 6673,
      "Ġretired": 6674,
      "BAGOT": 6675,
      "Ġtravell": 6676,
      "ĠMars": 6677,
      "Ġrue": 6678,
      "Ġafraid": 6679,
      "Ġmightst": 6680,
      "Ġfever": 6681,
      "ĠĠĠĠĠĠĠĠĠĠĠĠĠĠĠĠĠĠĠĠĠĠĠ": 6682,
      "Ġentrance": 6683,
      "Ġrestore": 6684,
      "tools": 6685,
      "Ġtricks": 6686,
      "\").": 6687,
      "Ġaccom": 6688,
      "):,": 6689,
      "Ġbestow": 6690,
      "Ġended": 6691,
      "Ġcheque": 6692,
      "Ġpurge": 6693,
      "Ġpurple": 6694,
      "Ġsmil": 6695,
      "Ġsmother": 6696,
      "Ġputting": 6697,
      "Prove": 6698,
      "Proceed": 6699,
      "Proclaim": 6700,
      "Ġdrew": 6701,
      "Ġhopeful": 6702,
      "Ġearthly": 6703,
      "eneration": 6704,
      "Ġcouldst": 6705,
      "Ġtren": 6706,
      "Ġhelps": 6707,
      "GEORGE": 6708,
      "being": 6709,
      "Content": 6710,
      "Ġbrains": 6711,
      "Ġconfound": 6712,
      "Load": 6713,
      "Ġbidding": 6714,
      "Ġattain": 6715,
      "Ġattorn": 6716,
      "Ġbeseem": 6717,
      "Ġlanded": 6718,
      "Ġapace": 6719,
      "Ġmisfortune": 6720,
      "Ġbuzz": 6721,
      "Ġgoddess": 6722,
      "Ġfalls": 6723,
      "Another": 6724,
      "proper": 6725,
      "Ġbusy": 6726,
      "Ġchosen": 6727,
      "Ġsteed": 6728,
      "Ġcounsell": 6729,
      "Ġcourtier": 6730,
      "Ġcourteous": 6731,
      "Ġrevenges": 6732,
      "erest": 6733,
      "Ġadvised": 6734,
      "ouchsafe": 6735,
      "Ġsounded": 6736,
      "Ġstraw": 6737,
      "Although": 6738,
      "aptain": 6739,
      "Ġwinters": 6740,
      "Ġvillains": 6741,
      "Ġyields": 6742,
      "Ġkisses": 6743,
      "FFT": 6744,
      "Ġsupport": 6745,
      "plified": 6746,
      "Ġlambs": 6747,
      "Ġrequire": 6748,
      "Ġrequired": 6749,
      "undy": 6750,
      "unday": 6751,
      "Ġbeaten": 6752,
      "acy": 6753,
      "Ġafflict": 6754,
      "upid": 6755,
      "avour": 6756,
      "Ġruns": 6757,
      "Hadst": 6758,
      "classmethod": 6759,
      "Ġentreaties": 6760,
      "Ġdevilish": 6761,
      "ventry": 6762,
      "Ġreadiness": 6763,
      "Ġboldly": 6764,
      "Comes": 6765,
      "Comfort": 6766,
      "guard": 6767,
      "Ġinfer": 6768,
      "Ġnobleness": 6769,
      "Ġprofane": 6770,
      "Ġwooing": 6771,
      "Becomes": 6772,
      "Ġdivor": 6773,
      "Ġyouthful": 6774,
      "Ġterm": 6775,
      "Ġskill": 6776,
      "Ġmusicians": 6777,
      "Ġsuitors": 6778,
      "Ġcloudy": 6779,
      "chers": 6780,
      "Ġdroop": 6781,
      "Ġsignal": 6782,
      "Ġsignify": 6783,
      "prise": 6784,
      "print": 6785,
      "Ġfiend": 6786,
      "Ġgrieves": 6787,
      "Ġgrieved": 6788,
      "Ġcheerly": 6789,
      "tention": 6790,
      "standing": 6791,
      "Ġliberal": 6792,
      "Ġsumm": 6793,
      "Ġextreme": 6794,
      "Ġwritten": 6795,
      "Ġtempor": 6796,
      "Ġtemples": 6797,
      "Ġsatisfaction": 6798,
      "Ġdarkness": 6799,
      "Ġprovide": 6800,
      "Ġprovoked": 6801,
      "Ġesteem": 6802,
      "Ġshop": 6803,
      "Ġshoes": 6804,
      "Ġinterchange": 6805,
      "Ġexped": 6806,
      "Ġflattering": 6807,
      "Ġapproved": 6808,
      "Ġbowels": 6809,
      "Ġtowns": 6810,
      "Ġhurl": 6811,
      "Ġsuddenly": 6812,
      "Ġfavours": 6813,
      "Ġcowardly": 6814,
      "Ġlists": 6815,
      "Ġlamentable": 6816,
      "128": 6817,
      "ossess": 6818,
      "Ġmiddle": 6819,
      "Ġfrail": 6820,
      "Ġdestin": 6821,
      "Ġdestruction": 6822,
      "Ġinsol": 6823,
      "Ġeaten": 6824,
      "Ġkinsmen": 6825,
      "bank": 6826,
      "Ġsorted": 6827,
      "Ġdeparture": 6828,
      "Encoder": 6829,
      "Whiles": 6830,
      "Ġfondly": 6831,
      "Ġusurping": 6832,
      "Ġprophes": 6833,
      "Above": 6834,
      "Ġmildness": 6835,
      "Ġfreedom": 6836,
      "ĠGreen": 6837,
      "Ġgladly": 6838,
      "Ġobsequ": 6839,
      "Ġtreasons": 6840,
      "Ġtroubled": 6841,
      "blood": 6842,
      "Ġstops": 6843,
      "Ġcondemned": 6844,
      "actors": 6845,
      "normal": 6846,
      "Ġslipp": 6847,
      "Ġpetty": 6848,
      "Ġconquest": 6849,
      "arers": 6850,
      "Ġgrandam": 6851,
      "Ġgrandsire": 6852,
      "Ġrobb": 6853,
      "Ġrobes": 6854,
      "Ġeldest": 6855,
      "ĠAntigonus": 6856,
      "Ġdesigns": 6857,
      "Neither": 6858,
      "spurgh": 6859,
      "Ġbastards": 6860,
      "Ġamongst": 6861,
      "Ġgreeting": 6862,
      "Plantagenet": 6863,
      "Ġministers": 6864,
      "Officer": 6865,
      "Ġerrand": 6866,
      "ĠROOT": 6867,
      "Ġconclud": 6868,
      "Ġconclude": 6869,
      "Ġdismiss": 6870,
      "Ġacquainted": 6871,
      "Ġgifts": 6872,
      "Ġghostly": 6873,
      "Ġbehavior": 6874,
      "communication": 6875,
      "Appear": 6876,
      "mediate": 6877,
      "Ġimagine": 6878,
      "Ġtempted": 6879,
      "Ġowes": 6880,
      "Ġshrift": 6881,
      "Perhaps": 6882,
      "Ġtestim": 6883,
      "Ġwandering": 6884,
      "Ġdataclass": 6885,
      "Ġweapons": 6886,
      "Ġeleven": 6887,
      "Ġvanity": 6888,
      "Ġprodig": 6889,
      "ĠLeontes": 6890,
      "Ġheavier": 6891,
      "Ġadvanced": 6892,
      "Ġmutinous": 6893,
      "Shalt": 6894,
      "ĠQueen": 6895,
      "Ġfrost": 6896,
      "Ġdiscontented": 6897,
      "Ġaccusation": 6898,
      "Ġpersuade": 6899,
      "PECIA": 6900,
      "Ġoptimizer": 6901,
      "Ġhazard": 6902,
      "ĠCaliban": 6903,
      "ĠModel": 6904,
      "ĠBlunt": 6905,
      "Ġsavage": 6906,
      "Ġcomplexion": 6907,
      "Ġinstantly": 6908,
      "Ġcorrection": 6909,
      "iveness": 6910,
      "Ġmoral": 6911,
      "Ġfalcon": 6912,
      "Ġfigure": 6913,
      "Ġfurnish": 6914,
      "Ġparents": 6915,
      "Ġrevolt": 6916,
      "ĠCoventry": 6917,
      "ĠSTEPH": 6918,
      "Ġ2026": 6919,
      "Ġctr": 6920,
      "advised": 6921,
      "Ġreckon": 6922,
      "Ġrecompense": 6923,
      "ifferent": 6924,
      "Ġbridal": 6925,
      "Ġunkindness": 6926,
      "Ġpilgrimage": 6927,
      "TOKENS": 6928,
      "Ġreconcile": 6929,
      "Embed": 6930,
      "ilful": 6931,
      "Ġnumbers": 6932,
      "Ġanchor": 6933,
      "ĠMinola": 6934,
      "ĠVenice": 6935,
      "Ġblemish": 6936,
      "EXTON": 6937,
      "width": 6938,
      "Ġthieves": 6939,
      "Ġhistory": 6940,
      "Ġransom": 6941,
      "Ġproclamation": 6942,
      "Ġvelvet": 6943,
      "Ġtyrannous": 6944,
      "Else": 6945,
      "Gaoler": 6946,
      "Gardener": 6947,
      "Lucentio": 6948,
      "Month": 6949,
      "MORELAND": 6950,
      "MELS": 6951,
      "Towards": 6952,
      "WESTMORELAND": 6953,
      "ZWATER": 6954,
      "envolio": 6955,
      "Ġnarrow": 6956,
      "Ġphilosop": 6957,
      "Ġherald": 6958,
      "ednesday": 6959,
      "Ġmembers": 6960,
      "Ġallegiance": 6961,
      "ĠCARLISLE": 6962,
      "ĠRavenspurgh": 6963,
      "ĠSCROOP": 6964,
      "Ġambitious": 6965,
      "ĠBurgundy": 6966,
      "ĠWelsh": 6967,
      "Ġintegrity": 6968,
      "ĠFITZWATER": 6969,
      "PECIAL": 6970,
      "ĠSTEPHEN": 6971,
      "Ġphilosophy": 6972,
      "#\",": 6973,
      "*.": 6974,
      "15": 6975,
      "100": 6976,
      "25": 6977,
      "Ac": 6978,
      "Af": 6979,
      "App": 6980,
      "Add": 6981,
      "Bound": 6982,
      "Ca": 6983,
      "Cut": 6984,
      "Camillo": 6985,
      "Catesby": 6986,
      "Dep": 6987,
      "Fore": 6988,
      "Five": 6989,
      "Fall": 6990,
      "Foul": 6991,
      "FBR": 6992,
      "Fetch": 6993,
      "Gives": 6994,
      "Grace": 6995,
      "Hie": 6996,
      "Harry": 6997,
      "Hang": 6998,
      "Imp": 6999,
      "Justice": 7000,
      "Kind": 7001,
      "Lim": 7002,
      "Lies": 7003,
      "Mur": 7004,
      "PA": 7005,
      "Par": 7006,
      "Part": 7007,
      "Peter": 7008,
      "Rel": 7009,
      "Sl": 7010,
      "Sit": 7011,
      "Send": 7012,
      "Small": 7013,
      "Te": 7014,
      "Ten": 7015,
      "Tra": 7016,
      "Talk": 7017,
      "Touch": 7018,
      "Truly": 7019,
      "Verily": 7020,
      "Vouchsafe": 7021,
      "Wr": 7022,
      "Wert": 7023,
      "Zounds": 7024,
      "]),": 7025,
      "aches": 7026,
      "bon": 7027,
      "bes": 7028,
      "bat": 7029,
      "bour": 7030,
      "bell": 7031,
      "board": 7032,
      "co": 7033,
      "cation": 7034,
      "dur": 7035,
      "ders": 7036,
      "eves": 7037,
      "eks": 7038,
      "eys": 7039,
      "fri": 7040,
      "fine": 7041,
      "gic": 7042,
      "gress": 7043,
      "hors": 7044,
      "kens": 7045,
      "know": 7046,
      "lor": 7047,
      "lat": 7048,
      "low": 7049,
      "lim": 7050,
      "lord": 7051,
      "last": 7052,
      "line": 7053,
      "list": 7054,
      "lance": 7055,
      "liness": 7056,
      "met": 7057,
      "mour": 7058,
      "mind": 7059,
      "mult": 7060,
      "mistress": 7061,
      "ob": 7062,
      "oble": 7063,
      "pite": 7064,
      "pular": 7065,
      "rot": 7066,
      "rat": 7067,
      "rid": 7068,
      "rone": 7069,
      "rish": 7070,
      "sr": 7071,
      "sz": 7072,
      "sent": 7073,
      "spect": 7074,
      "speak": 7075,
      "sys": 7076,
      "tu": 7077,
      "tin": 7078,
      "tell": 7079,
      "tol": 7080,
      "tong": 7081,
      "tree": 7082,
      "tied": 7083,
      "trees": 7084,
      "uge": 7085,
      "uate": 7086,
      "uced": 7087,
      "vir": 7088,
      "vish": 7089,
      "wh": 7090,
      "wr": 7091,
      "wer": 7092,
      "was": 7093,
      "wart": 7094,
      "women": 7095,
      "wandb": 7096,
      "yle": 7097,
      "}\"": 7098,
      "}/": 7099,
      "âĤ¹": 7100,
      "Ġ&": 7101,
      "Ġ9": 7102,
      "Ġ--": 7103,
      "ĠFirst": 7104,
      "Ġtrow": 7105,
      "Ġtie": 7106,
      "Ġtreat": 7107,
      "Ġtorn": 7108,
      "Ġtaking": 7109,
      "heard": 7110,
      "Ġafe": 7111,
      "Ġaud": 7112,
      "Ġsow": 7113,
      "Ġsand": 7114,
      "Ġsong": 7115,
      "Ġsack": 7116,
      "Ġsize": 7117,
      "Ġsixt": 7118,
      "iners": 7119,
      "inate": 7120,
      "inces": 7121,
      "inius": 7122,
      "Ġmom": 7123,
      "Ġmas": 7124,
      "Ġmap": 7125,
      "Ġmouse": 7126,
      "Ġmates": 7127,
      "Ġmurde": 7128,
      "Ġwore": 7129,
      "Ġwol": 7130,
      "Ġwav": 7131,
      "Ġwipe": 7132,
      "reach": 7133,
      "had": 7134,
      "hage": 7135,
      "Ġbot": 7136,
      "Ġbul": 7137,
      "Ġbows": 7138,
      "Ġbail": 7139,
      "Ġbait": 7140,
      "Ġbounty": 7141,
      "Ġbsz": 7142,
      "erp": 7143,
      "eras": 7144,
      "Ġfn": 7145,
      "Ġfut": 7146,
      "Ġfif": 7147,
      "Ġfrant": 7148,
      "Ġfount": 7149,
      "Ġfund": 7150,
      "Ġfift": 7151,
      "Ġfbin": 7152,
      "Ġfingers": 7153,
      "Ġfrank": 7154,
      "Ġframed": 7155,
      "Ġfolks": 7156,
      "onio": 7157,
      "onac": 7158,
      "enches": 7159,
      "Ġcord": 7160,
      "Ġcand": 7161,
      "Ġcab": 7162,
      "Ġcrows": 7163,
      "Ġcords": 7164,
      "Ġdot": 7165,
      "Ġded": 7166,
      "Ġdine": 7167,
      "Ġdate": 7168,
      "Ġdried": 7169,
      "Ġdined": 7170,
      "Ġdash": 7171,
      "Ġdumb": 7172,
      "Ġdiest": 7173,
      "Ġnort": 7174,
      "Ġnigh": 7175,
      "Ġnamed": 7176,
      "Ġnimble": 7177,
      "Ġlute": 7178,
      "Ġlads": 7179,
      "Ġlying": 7180,
      "Ġlinger": 7181,
      "Ġthrown": 7182,
      "Ġhy": 7183,
      "Ġhill": 7184,
      "Ġpor": 7185,
      "Ġpow": 7186,
      "Ġpest": 7187,
      "Ġpant": 7188,
      "Ġpatch": 7189,
      "Ġpict": 7190,
      "Ġpars": 7191,
      "Ġpup": 7192,
      "Ġheel": 7193,
      "Ġheinous": 7194,
      "otland": 7195,
      "ank": 7196,
      "ingle": 7197,
      "Ġgust": 7198,
      "sec": 7199,
      "see": 7200,
      "seed": 7201,
      "seth": 7202,
      "second": 7203,
      "Ġbew": 7204,
      "Ġbeef": 7205,
      "Ġinward": 7206,
      "cell": 7207,
      "cels": 7208,
      "Ġhag": 7209,
      "Ġhaunt": 7210,
      "ays": 7211,
      "aying": 7212,
      "ayed": 7213,
      "ims": 7214,
      "etition": 7215,
      "uto": 7216,
      "ĠĠĠĠĠĠ": 7217,
      "Ġmeed": 7218,
      "Ġmeal": 7219,
      "Ġnotice": 7220,
      "Ġug": 7221,
      "ourn": 7222,
      "Ġweed": 7223,
      "Ġwears": 7224,
      "advent": 7225,
      "Ġeight": 7226,
      "Ġeff": 7227,
      "Ġevent": 7228,
      "Ġstd": 7229,
      "Ġstink": 7230,
      "Ġstag": 7231,
      "Ġstates": 7232,
      "Ġstiff": 7233,
      "alks": 7234,
      "Ġrein": 7235,
      "Ġrend": 7236,
      "Ġresemb": 7237,
      "Ġrevive": 7238,
      "asant": 7239,
      "rial": 7240,
      "rift": 7241,
      "rief": 7242,
      "riffin": 7243,
      "Ġkern": 7244,
      "Ġkites": 7245,
      "rall": 7246,
      "rament": 7247,
      "urb": 7248,
      "uring": 7249,
      "Ġdeer": 7250,
      "Ġdece": 7251,
      "Ġdeform": 7252,
      "Ġdearer": 7253,
      "roach": 7254,
      "Ġlick": 7255,
      "Ġliqu": 7256,
      "Ġlief": 7257,
      "Ġashes": 7258,
      "Ġsequ": 7259,
      "Ġsearch": 7260,
      "cket": 7261,
      "vertis": 7262,
      "amy": 7263,
      "amity": 7264,
      "ameter": 7265,
      "Ġlocks": 7266,
      "Ġloathed": 7267,
      "peian": 7268,
      "Ġsham": 7269,
      "Ġshade": 7270,
      "ushi": 7271,
      "Ġdole": 7272,
      "Ġnoon": 7273,
      "anders": 7274,
      "Ġbutt": 7275,
      "Throw": 7276,
      "terbank": 7277,
      "Ġann": 7278,
      "Ġancest": 7279,
      "ctr": 7280,
      "ctors": 7281,
      "ella": 7282,
      "ĠCambio": 7283,
      "ĠCupid": 7284,
      "Ġvul": 7285,
      "Ġvass": 7286,
      "Ġvial": 7287,
      "Ġventure": 7288,
      "ĠRe": 7289,
      "ĠRo": 7290,
      "ĠRea": 7291,
      "ĠRISC": 7292,
      "ules": 7293,
      "Ġfaction": 7294,
      "Ġconvers": 7295,
      "ousins": 7296,
      "Ġwhatsoever": 7297,
      "arthage": 7298,
      "Ġprate": 7299,
      "Ġprating": 7300,
      "Ġshot": 7301,
      "Ġshown": 7302,
      "quant": 7303,
      "icon": 7304,
      "icle": 7305,
      "embroke": 7306,
      "ĠSly": 7307,
      "ĠSmall": 7308,
      "ĠSunday": 7309,
      "ĠEven": 7310,
      "ĠEdge": 7311,
      "Ġmanhood": 7312,
      "Ġamaz": 7313,
      "Ġblot": 7314,
      "Ġblue": 7315,
      "Ġblown": 7316,
      "Ġbliss": 7317,
      "Ġblushing": 7318,
      "Ġblaze": 7319,
      "eptune": 7320,
      "ived": 7321,
      "ively": 7322,
      "ĠLove": 7323,
      "Ġtheme": 7324,
      "resent": 7325,
      "aved": 7326,
      "Ġthereto": 7327,
      "feel": 7328,
      "Ġcanop": 7329,
      "Ġornam": 7330,
      "Ġarch": 7331,
      "Ġarise": 7332,
      "ĠBagot": 7333,
      "ĠBharat": 7334,
      "ĠBenvolio": 7335,
      "Ġherein": 7336,
      "Ġunlike": 7337,
      "Ġunlook": 7338,
      "Ġunruly": 7339,
      "urer": 7340,
      "pper": 7341,
      "ĠHave": 7342,
      "Ġleap": 7343,
      "Ġleaving": 7344,
      "Ġworms": 7345,
      "Ġworser": 7346,
      "Ġque": 7347,
      "Ġqual": 7348,
      "ĠPha": 7349,
      "ĠPoor": 7350,
      "ung": 7351,
      "unis": 7352,
      "Ġagents": 7353,
      "lob": 7354,
      "Ġrhe": 7355,
      "Ġranc": 7356,
      "Ġrush": 7357,
      "Ġrushes": 7358,
      "Ġmustard": 7359,
      "Ġspark": 7360,
      "Ġspider": 7361,
      "Ġspurs": 7362,
      "Ġgraces": 7363,
      "Ġseeks": 7364,
      "Ġlikeli": 7365,
      "Ġshoulders": 7366,
      "Ġenforced": 7367,
      "Ġenrich": 7368,
      "ĠWest": 7369,
      "ĠWednesday": 7370,
      "Ġfox": 7371,
      "Ġpopular": 7372,
      "fulness": 7373,
      "Ġbox": 7374,
      "Ġboister": 7375,
      "death": 7376,
      "Ġmarshal": 7377,
      "Ġsap": 7378,
      "ĠTime": 7379,
      "ĠTew": 7380,
      "ĠTrue": 7381,
      "ĠTroy": 7382,
      "ĠTullus": 7383,
      "ĠTribunes": 7384,
      "Ġoffences": 7385,
      "Ġdiso": 7386,
      "Ġdissemb": 7387,
      "Ġalar": 7388,
      "Ġaloud": 7389,
      "Ġalso": 7390,
      "ABRA": 7391,
      "Ġpeer": 7392,
      "Ġbrotherhood": 7393,
      "Ġintents": 7394,
      "ĠDiffusion": 7395,
      "Ġrope": 7396,
      "Ġroof": 7397,
      "Ġroses": 7398,
      "Ġroaring": 7399,
      "Ġdesc": 7400,
      "Ġimpeach": 7401,
      "lier": 7402,
      "context": 7403,
      "ĠKent": 7404,
      "Ġprec": 7405,
      "Ġrig": 7406,
      "Ġrival": 7407,
      "Ġcommends": 7408,
      "Ġadverse": 7409,
      "ulting": 7410,
      "ĠNed": 7411,
      "ĠNeptune": 7412,
      "Ġperfection": 7413,
      "Ġsweetest": 7414,
      "ĠFourth": 7415,
      "Ġscore": 7416,
      "Ġscale": 7417,
      "Ġsched": 7418,
      "Ġplebe": 7419,
      "Ġcoast": 7420,
      "Ġcoff": 7421,
      "Ġcozen": 7422,
      "Ġmoe": 7423,
      "Ġmoving": 7424,
      "Ġmoiety": 7425,
      "Ġwring": 7426,
      "Ġmeaner": 7427,
      "Ġotherwise": 7428,
      "Ġcontri": 7429,
      "Ġchip": 7430,
      "Ġrace": 7431,
      "Ġnighting": 7432,
      "these": 7433,
      "Thank": 7434,
      "mean": 7435,
      "Ġdownfall": 7436,
      "GREY": 7437,
      "Ġwhist": 7438,
      "Ġtrim": 7439,
      "Ġtrod": 7440,
      "Ġmothers": 7441,
      "Ġelif": 7442,
      "Ġeverlast": 7443,
      "Ġdefy": 7444,
      "ksbury": 7445,
      "ĠJup": 7446,
      "Ġmode": 7447,
      "Ġmodels": 7448,
      "Ġconsensus": 7449,
      "osition": 7450,
      "Ġharl": 7451,
      "Ġharvest": 7452,
      "Ġharbour": 7453,
      "Ġcompare": 7454,
      "Ġcompound": 7455,
      "Ġrests": 7456,
      "Ġrestra": 7457,
      "need": 7458,
      "Ġsettled": 7459,
      "Ġreturned": 7460,
      "together": 7461,
      "\"),": 7462,
      "Ġaccomp": 7463,
      "Ġhenceforth": 7464,
      "Ġendured": 7465,
      "Ġfaced": 7466,
      "Ġchamp": 7467,
      "Ġpursue": 7468,
      "Ġsubs": 7469,
      "Ġ16": 7470,
      "Ġ1024": 7471,
      "Ġdearth": 7472,
      "Ġtrees": 7473,
      "twould": 7474,
      "Ġhomely": 7475,
      "Ġcharges": 7476,
      "Confess": 7477,
      "Northumberland": 7478,
      "Ġchances": 7479,
      "Ġchanging": 7480,
      "Ġconfed": 7481,
      "Ġconfusion": 7482,
      "Ġconfidence": 7483,
      "Ġlights": 7484,
      "Ġroyalties": 7485,
      "Ġfully": 7486,
      "Ġbeside": 7487,
      "Ġlasting": 7488,
      "Ġwronged": 7489,
      "Ġapart": 7490,
      "Ġmisc": 7491,
      "Ġmischief": 7492,
      "Ġafterward": 7493,
      "Ġholding": 7494,
      "Ġthousands": 7495,
      "Ġpatron": 7496,
      "Ġfallen": 7497,
      "Ġfalling": 7498,
      "project": 7499,
      "ivant": 7500,
      "Ġchose": 7501,
      "Ġgrim": 7502,
      "Ġgrass": 7503,
      "Ġhumility": 7504,
      "Ġstead": 7505,
      "Ġsteep": 7506,
      "Ġsteward": 7507,
      "Ġtalking": 7508,
      "Ġbelong": 7509,
      "Ġbelieved": 7510,
      "Ġstrict": 7511,
      "Ġstrife": 7512,
      "Ġserious": 7513,
      "Ġdram": 7514,
      "Ġadvocate": 7515,
      "Ġ{}": 7516,
      "Ġmerchant": 7517,
      "Ġdoubtful": 7518,
      "Attend": 7519,
      "Ġtemple": 7520,
      "Ġpersons": 7521,
      "Ġdancing": 7522,
      "Ġgeneration": 7523,
      "Ġcommands": 7524,
      "Ġwindow": 7525,
      "Ġhangman": 7526,
      "Ġproudest": 7527,
      "Ġbreaks": 7528,
      "Twixt": 7529,
      "Ġyielding": 7530,
      "Ġappears": 7531,
      "attr": 7532,
      ")))": 7533,
      "ixed": 7534,
      "Ġmerri": 7535,
      "Ġclock": 7536,
      "Ġcloak": 7537,
      "Ġclosed": 7538,
      "Ġcrab": 7539,
      "Ġtenderness": 7540,
      "Ġlately": 7541,
      "layer": 7542,
      "Ġdeeper": 7543,
      "Ġsadly": 7544,
      "Ġgrowth": 7545,
      "Ġdischarge": 7546,
      "Ġsilk": 7547,
      "Ġsilicon": 7548,
      "ittany": 7549,
      "Ġreported": 7550,
      "Ġasking": 7551,
      "shine": 7552,
      "Ġwatery": 7553,
      "Ġlearning": 7554,
      "ĠMontagues": 7555,
      "Ġcrying": 7556,
      "Ġopening": 7557,
      "Ġgrants": 7558,
      "Ġhardware": 7559,
      "Ġentreaty": 7560,
      "Ġdevils": 7561,
      "Ġmurders": 7562,
      "Ġboldness": 7563,
      "guish": 7564,
      "uffer": 7565,
      "Ġrevengeful": 7566,
      "Ġminutes": 7567,
      "Ġcorruption": 7568,
      "Ġconfessor": 7569,
      "Ġlearned": 7570,
      "Happ": 7571,
      "Happy": 7572,
      "Ġforehead": 7573,
      "Ġembed": 7574,
      "Ġdistress": 7575,
      "Ġspeedy": 7576,
      "Ġdespised": 7577,
      "Ġbosoms": 7578,
      "Ġacts": 7579,
      "Ġharmony": 7580,
      "Ġmurderous": 7581,
      "Ġveil": 7582,
      "Ġsingular": 7583,
      "Ġmusician": 7584,
      "Ġwonderful": 7585,
      "Ġburden": 7586,
      "Ġsuffering": 7587,
      "Swear": 7588,
      "scale": 7589,
      "scratch": 7590,
      "Ġwedded": 7591,
      "Ġevils": 7592,
      "Ġbreasts": 7593,
      "Read": 7594,
      "Ready": 7595,
      "exec": 7596,
      "ĠTokenizer": 7597,
      "Ġlenity": 7598,
      "Ġredempt": 7599,
      "shearing": 7600,
      "ĠFortune": 7601,
      "Ġsurfeit": 7602,
      "Ġwisely": 7603,
      "eshrew": 7604,
      "Ġgroom": 7605,
      "Ġrecreant": 7606,
      "Ġtroubl": 7607,
      "Ġbeggars": 7608,
      "Ġfeasts": 7609,
      "Ġtape": 7610,
      "Ġcrim": 7611,
      "Ġcrush": 7612,
      "Ġcritic": 7613,
      "Ġlatent": 7614,
      "Ġprovided": 7615,
      "Ġestimation": 7616,
      "Ġdukes": 7617,
      "ĠVolscians": 7618,
      "ĠVolscian": 7619,
      "Ġsafely": 7620,
      "Ġsafeguard": 7621,
      "Ġapprobation": 7622,
      "Ġvisitation": 7623,
      "Ġbowl": 7624,
      "Ġbaby": 7625,
      "Ġcreated": 7626,
      "([[": 7627,
      "Ġknocks": 7628,
      "Ġleaden": 7629,
      "Ġsacrament": 7630,
      "Ġsmallest": 7631,
      "Ġlamentation": 7632,
      "ĠIsabella": 7633,
      "Ġignoble": 7634,
      "Ġmidst": 7635,
      "Ġmidwife": 7636,
      "Ġclean": 7637,
      "Ġdrinking": 7638,
      "Ġoppression": 7639,
      "Ġpathlib": 7640,
      "Ġinsin": 7641,
      "Ġcomplaint": 7642,
      "Ġfamiliar": 7643,
      "argv": 7644,
      "Ġutmost": 7645,
      "Ġpitied": 7646,
      "Ġeasily": 7647,
      "Stands": 7648,
      "Ġdamnable": 7649,
      "ggest": 7650,
      "prepare": 7651,
      "Ġ40": 7652,
      "Ġmildly": 7653,
      "Ġinjustice": 7654,
      "lected": 7655,
      "Lead": 7656,
      "Ġmedic": 7657,
      "atasets": 7658,
      "Ġreigns": 7659,
      "ModuleList": 7660,
      "Ġproceedings": 7661,
      "Ġprosperity": 7662,
      "longs": 7663,
      "Ġslily": 7664,
      "Ġlowly": 7665,
      "Ġthreaten": 7666,
      "Ġbending": 7667,
      "Ġslanderous": 7668,
      "ĠCapulets": 7669,
      "Ġmountain": 7670,
      "Ġcameras": 7671,
      "when": 7672,
      "Ġplants": 7673,
      "corax": 7674,
      "govern": 7675,
      "|-------": 7676,
      "Ġ64": 7677,
      "Ġcalc": 7678,
      "Ġcalamity": 7679,
      "Ġlodge": 7680,
      "Ġlodged": 7681,
      "Ġlodging": 7682,
      "Ġneighbours": 7683,
      "Ġunworthy": 7684,
      "Ġglasses": 7685,
      "Ġextremes": 7686,
      "Adv": 7687,
      "saved": 7688,
      "Ġmagist": 7689,
      "Ġmultitude": 7690,
      "Ġmultimodal": 7691,
      "Ġconclusion": 7692,
      "Ġ70": 7693,
      "Ġdrift": 7694,
      "ĠAlban": 7695,
      "Ġdisgraced": 7696,
      "ibonac": 7697,
      "Ġavoided": 7698,
      "Ġcauses": 7699,
      "Ġpilot": 7700,
      "Ġeager": 7701,
      "Ġstatutes": 7702,
      "Ġloathsome": 7703,
      "Ġloyalty": 7704,
      "losses": 7705,
      "Ġimagination": 7706,
      "Ġguiltless": 7707,
      "Ġ8192": 7708,
      "Ġaims": 7709,
      "Ġsensible": 7710,
      "Ġwaits": 7711,
      "Ġcrept": 7712,
      "Ġrepeat": 7713,
      "Ġadopt": 7714,
      "Ġchiefest": 7715,
      "Prepare": 7716,
      "Ġpinch": 7717,
      "Ġinfected": 7718,
      "Ġstocks": 7719,
      "Ġangels": 7720,
      "Ġconcerns": 7721,
      "Ġbranch": 7722,
      "Ġbranches": 7723,
      "Ġpursuit": 7724,
      "Ġconqueror": 7725,
      "cannot": 7726,
      "Ġtutor": 7727,
      "Ġmessages": 7728,
      "Ġfrozen": 7729,
      "ARCHBISHOP": 7730,
      "ĠAdam": 7731,
      "ĠFlor": 7732,
      "Ġcircumstance": 7733,
      "Ġfleet": 7734,
      "Ġoptical": 7735,
      "ĠBrittany": 7736,
      "Ġwhoreson": 7737,
      "Ġcompassion": 7738,
      "Ġapprehend": 7739,
      "Ġcorrect": 7740,
      "Suppose": 7741,
      "```": 7742,
      "Ġlunatic": 7743,
      "Ġstolen": 7744,
      "Ġswelling": 7745,
      "Ġabhorr": 7746,
      "Ġperjured": 7747,
      "ĠSwarmConfig": 7748,
      "Ġnails": 7749,
      "Ġpuiss": 7750,
      "Ġinquire": 7751,
      "Ġwrinkled": 7752,
      "Ġwhispering": 7753,
      "Ġclimate": 7754,
      "ĠAntium": 7755,
      "Ġceremonious": 7756,
      "Lieutenant": 7757,
      "Mistake": 7758,
      "Sometime": 7759,
      "Ġtaunts": 7760,
      "Ġmoody": 7761,
      "Ġpiercing": 7762,
      "Ġforsooth": 7763,
      "Ġdelicate": 7764,
      "Ġvarlet": 7765,
      "ĠMultimodal": 7766,
      "Ġunwilling": 7767,
      "ĠPILLAR": 7768,
      "Ġsplit": 7769,
      "Ġsprings": 7770,
      "ĠTarpeian": 7771,
      "Ġsubstitute": 7772,
      "Ġincensed": 7773,
      "Ġflatterers": 7774,
      "craft": 7775,
      "Ġtiger": 7776,
      "Ġmilk": 7777,
      "Ġhinder": 7778,
      "Ġpearl": 7779,
      "Ġbereft": 7780,
      "Ġunseen": 7781,
      "Ġtrifles": 7782,
      "Ġserpent": 7783,
      "Ġsufficient": 7784,
      "Ġoccupation": 7785,
      "Break": 7786,
      "Virtue": 7787,
      "Ġeternal": 7788,
      "Ġtardy": 7789,
      "Ġbattles": 7790,
      "Ġfantast": 7791,
      "Ġconsequence": 7792,
      "ĠSycorax": 7793,
      "Ġunluck": 7794,
      "Ġmarvellous": 7795,
      "Ġdestiny": 7796,
      "Ġprophesy": 7797,
      "256": 7798,
      "Murder": 7799,
      "Parameter": 7800,
      "Teach": 7801,
      "tuple": 7802,
      "tolist": 7803,
      "Ġafeard": 7804,
      "Ġsixteen": 7805,
      "Ġmoment": 7806,
      "Ġmurdered": 7807,
      "Ġfuture": 7808,
      "Ġfrantic": 7809,
      "Ġfifteen": 7810,
      "Ġcabin": 7811,
      "Ġnorthern": 7812,
      "adventure": 7813,
      "Ġornaments": 7814,
      "Ġlikelihood": 7815,
      "Ġboisterous": 7816,
      "ĠTewksbury": 7817,
      "ABRAHAM": 7818,
      "ĠJupiter": 7819,
      "Ġredemption": 7820,
      "Ġcriticality": 7821,
      "ibonacci": 7822,
      "({": 7823,
      ")}": 7824,
      ")}\")": 7825,
      ".**": 7826,
      "28": 7827,
      "63": 7828,
      "768": 7829,
      ":.": 7830,
      "=(": 7831,
      "Aff": 7832,
      "Again": 7833,
      "Aumerle": 7834,
      "Ban": 7835,
      "BIN": 7836,
      "BON": 7837,
      "Base": 7838,
      "Bless": 7839,
      "Bold": 7840,
      "Block": 7841,
      "Cle": 7842,
      "Cast": 7843,
      "Cold": 7844,
      "Carry": 7845,
      "Cursed": 7846,
      "Den": 7847,
      "Dest": 7848,
      "Dare": 7849,
      "Def": 7850,
      "DION": 7851,
      "Direct": 7852,
      "End": 7853,
      "Every": 7854,
      "EMI": 7855,
      "Fit": 7856,
      "Fill": 7857,
      "Fourth": 7858,
      "Gu": 7859,
      "Grand": 7860,
      "Groom": 7861,
      "GLU": 7862,
      "Gainst": 7863,
      "Har": 7864,
      "High": 7865,
      "Huntsman": 7866,
      "Just": 7867,
      "Join": 7868,
      "Keeper": 7869,
      "LPU": 7870,
      "Music": 7871,
      "NATH": 7872,
      "Obey": 7873,
      "PUS": 7874,
      "Path": 7875,
      "PATH": 7876,
      "Ren": 7877,
      "Ratcliff": 7878,
      "Sm": 7879,
      "Sus": 7880,
      "Sic": 7881,
      "Sub": 7882,
      "Train": 7883,
      "Trans": 7884,
      "Trust": 7885,
      "Ur": 7886,
      "UDIO": 7887,
      "Wife": 7888,
      "Worse": 7889,
      "_{": 7890,
      "ais": 7891,
      "bot": 7892,
      "bet": 7893,
      "bur": 7894,
      "best": 7895,
      "bles": 7896,
      "core": 7897,
      "cast": 7898,
      "cock": 7899,
      "certain": 7900,
      "cured": 7901,
      "cals": 7902,
      "counter": 7903,
      "dra": 7904,
      "dro": 7905,
      "dist": 7906,
      "daughter": 7907,
      "door": 7908,
      "ebus": 7909,
      "fp": 7910,
      "fan": 7911,
      "fed": 7912,
      "fly": 7913,
      "fil": 7914,
      "found": 7915,
      "files": 7916,
      "franch": 7917,
      "favour": 7918,
      "gle": 7919,
      "gif": 7920,
      "gage": 7921,
      "grown": 7922,
      "gled": 7923,
      "greed": 7924,
      "glob": 7925,
      "hur": 7926,
      "honour": 7927,
      "iqu": 7928,
      "iel": 7929,
      "ipt": 7930,
      "ivers": 7931,
      "iGLU": 7932,
      "jud": 7933,
      "kn": 7934,
      "lm": 7935,
      "lain": 7936,
      "lter": 7937,
      "ma": 7938,
      "mid": 7939,
      "mal": 7940,
      "make": 7941,
      "much": 7942,
      "matter": 7943,
      "maked": 7944,
      "micro": 7945,
      "married": 7946,
      "nut": 7947,
      "nothing": 7948,
      "oes": 7949,
      "overy": 7950,
      "occ": 7951,
      "po": 7952,
      "pse": 7953,
      "phan": 7954,
      "pers": 7955,
      "png": 7956,
      "pens": 7957,
      "pred": 7958,
      "ples": 7959,
      "picious": 7960,
      "ris": 7961,
      "ride": 7962,
      "ritor": 7963,
      "rones": 7964,
      "rfft": 7965,
      "riment": 7966,
      "sk": 7967,
      "sy": 7968,
      "sion": 7969,
      "sil": 7970,
      "sign": 7971,
      "sick": 7972,
      "such": 7973,
      "somet": 7974,
      "small": 7975,
      "scape": 7976,
      "ton": 7977,
      "thi": 7978,
      "top": 7979,
      "uing": 7980,
      "uish": 7981,
      "uction": 7982,
      "ukes": 7983,
      "uclear": 7984,
      "voke": 7985,
      "who": 7986,
      "why": 7987,
      "wack": 7988,
      "were": 7989,
      "witted": 7990,
      "xl": 7991,
      "yet": 7992,
      "ython": 7993,
      "¬âĶĢâĶĢâĶĢâĶĢâĶ": 7994,
      "Ġ}": 7995,
      "Ġire": 7996,
      "ĠThus": 7997,
      "Ġton": 7998,
      "Ġtur": 7999,
      "Ġtink": 8000,
      "Ġtents": 8001,
      "Ġtax": 8002,
      "Ġtainted": 8003,
      "Ġtailor": 8004,
      "Ġtamed": 8005,
      "Ġtumble": 8006,
      "Ġaut": 8007,
      "Ġack": 8008,
      "Ġape": 8009,
      "Ġafore": 8010,
      "Ġalo": 8011,
      "Ġsch": 8012,
      "Ġsith": 8013,
      "Ġsine": 8014,
      "Ġsia": 8015,
      "Ġsys": 8016,
      "Ġsiege": 8017,
      "ouches": 8018,
      "iner": 8019,
      "inter": 8020,
      "instance": 8021,
      "Ġmast": 8022,
      "Ġmath": 8023,
      "Ġmant": 8024,
      "Ġmart": 8025,
      "Ġmiles": 8026,
      "Ġwran": 8027,
      "Ġwester": 8028,
      "Ġwandb": 8029,
      "Ġwilful": 8030,
      "report": 8031,
      "revere": 8032,
      "Ġbought": 8033,
      "Ġbishop": 8034,
      "oricles": 8035,
      "isk": 8036,
      "isher": 8037,
      "isome": 8038,
      "erous": 8039,
      "Ġfan": 8040,
      "Ġfed": 8041,
      "Ġfet": 8042,
      "Ġfem": 8043,
      "Ġfits": 8044,
      "Ġfiles": 8045,
      "Ġflock": 8046,
      "Ġfibonacci": 8047,
      "only": 8048,
      "lling": 8049,
      "itan": 8050,
      "itch": 8051,
      "encod": 8052,
      "Ġcy": 8053,
      "Ġcave": 8054,
      "Ġcuck": 8055,
      "Ġcrew": 8056,
      "Ġcrest": 8057,
      "Ġcurious": 8058,
      "Ġcushi": 8059,
      "Ġcousins": 8060,
      "Ġds": 8061,
      "Ġdy": 8062,
      "Ġder": 8063,
      "Ġdom": 8064,
      "Ġdil": 8065,
      "Ġdame": 8066,
      "Ġdun": 8067,
      "Ġdiet": 8068,
      "Ġdrows": 8069,
      "Ġdatasets": 8070,
      "Ġnon": 8071,
      "Ġnaught": 8072,
      "Ġnourish": 8073,
      "Ġlr": 8074,
      "Ġlin": 8075,
      "Ġlour": 8076,
      "Ġlink": 8077,
      "Ġlace": 8078,
      "Ġlends": 8079,
      "arison": 8080,
      "Ġyare": 8081,
      "Ġyester": 8082,
      "Ġthrees": 8083,
      "Ġtoe": 8084,
      "Ġtoy": 8085,
      "Ġtoads": 8086,
      "Ġtower": 8087,
      "Ġhood": 8088,
      "Ġobt": 8089,
      "Ġpour": 8090,
      "Ġpine": 8091,
      "Ġpate": 8092,
      "Ġpounds": 8093,
      "Ġpuff": 8094,
      "Ġportal": 8095,
      "Ġpedant": 8096,
      "ĠIter": 8097,
      "Ġheal": 8098,
      "Ġheigh": 8099,
      "ato": 8100,
      "atus": 8101,
      "atches": 8102,
      "atient": 8103,
      "stain": 8104,
      "stone": 8105,
      "strel": 8106,
      "stances": 8107,
      "style": 8108,
      "omenes": 8109,
      "owick": 8110,
      "Ġgam": 8111,
      "Ġgame": 8112,
      "Ġgaz": 8113,
      "Ġgait": 8114,
      "Ġgeld": 8115,
      "Ġbeet": 8116,
      "Ġbeads": 8117,
      "Ġbeware": 8118,
      "Ġinve": 8119,
      "Ġinch": 8120,
      "Ġinvent": 8121,
      "Ġinherit": 8122,
      "Ġinconstant": 8123,
      "ceives": 8124,
      "ceiving": 8125,
      "Ġhaw": 8126,
      "Ġhall": 8127,
      "Ġhalt": 8128,
      "imo": 8129,
      "iments": 8130,
      "implified": 8131,
      "ediment": 8132,
      "utation": 8133,
      "child": 8134,
      "Ġmellow": 8135,
      "Ġnotwith": 8136,
      "odowick": 8137,
      "Ġisinstance": 8138,
      "Ġforces": 8139,
      "key": 8140,
      "adem": 8141,
      "adise": 8142,
      "Ġelo": 8143,
      "Ġebb": 8144,
      "entious": 8145,
      "illar": 8146,
      "illed": 8147,
      "illars": 8148,
      "herited": 8149,
      "idd": 8150,
      "iding": 8151,
      "Ġstem": 8152,
      "Ġstark": 8153,
      "Ġstub": 8154,
      "Ġstaff": 8155,
      "aling": 8156,
      "alty": 8157,
      "Ġrever": 8158,
      "Ġrender": 8159,
      "asy": 8160,
      "asing": 8161,
      "asures": 8162,
      "rion": 8163,
      "riam": 8164,
      "rieve": 8165,
      "raken": 8166,
      "rails": 8167,
      "raught": 8168,
      "ghts": 8169,
      "urity": 8170,
      "urvy": 8171,
      "urrent": 8172,
      "Ġdeceive": 8173,
      "Ġdefect": 8174,
      "Ġdecode": 8175,
      "Ġdebase": 8176,
      "Ġliar": 8177,
      "Ġsolic": 8178,
      "Ġashore": 8179,
      "Ġseg": 8180,
      "Ġsear": 8181,
      "Ġsepar": 8182,
      "AREST": 8183,
      "ckpt": 8184,
      "verdone": 8185,
      "ainty": 8186,
      "Ġloose": 8187,
      "Ġloins": 8188,
      "ifth": 8189,
      "ific": 8190,
      "ifference": 8191
    },
    "merges": [
      [
        "Ġ",
        "t"
      ],
      [
        "h",
        "e"
      ],
      [
        "Ġ",
        "a"
      ],
      [
        "Ġ",
        "s"
      ],
      [
        "o",
        "u"
      ],
      [
        "i",
        "n"
      ],
      [
        "Ġ",
        "m"
      ],
      [
        "Ġ",
        "w"
      ],
      [
        "r",
        "e"
      ],
      [
        "h",
        "a"
      ],
      [
        "n",
        "d"
      ],
      [
        "Ġt",
        "he"
      ],
      [
        "Ġ",
        "b"
      ],
      [
        "o",
        "r"
      ],
      [
        "i",
        "s"
      ],
      [
        "Ġ",
        "Ġ"
      ],
      [
        "e",
        "r"
      ],
      [
        "Ġ",
        "f"
      ],
      [
        "o",
        "n"
      ],
      [
        "l",
        "l"
      ],
      [
        "i",
        "t"
      ],
      [
        "e",
        "n"
      ],
      [
        "Ġ",
        "c"
      ],
      [
        "Ġ",
        "d"
      ],
      [
        "Ġ",
        "n"
      ],
      [
        "e",
        "s"
      ],
      [
        "Ġ",
        "l"
      ],
      [
        "a",
        "r"
      ],
      [
        "Ġ",
        "y"
      ],
      [
        "Ġt",
        "h"
      ],
      [
        "Ġt",
        "o"
      ],
      [
        "Ġ",
        "h"
      ],
      [
        "Ġ",
        "o"
      ],
      [
        "Ġ",
        "p"
      ],
      [
        "Ġy",
        "ou"
      ],
      [
        "ha",
        "t"
      ],
      [
        "Ġ",
        "I"
      ],
      [
        "Ġ",
        "he"
      ],
      [
        "v",
        "e"
      ],
      [
        "o",
        "t"
      ],
      [
        "a",
        "t"
      ],
      [
        "s",
        "t"
      ],
      [
        "a",
        "n"
      ],
      [
        "in",
        "g"
      ],
      [
        "o",
        "m"
      ],
      [
        "Ġa",
        "nd"
      ],
      [
        "o",
        "w"
      ],
      [
        "Ġo",
        "f"
      ],
      [
        "Ġ",
        "g"
      ],
      [
        "s",
        "e"
      ],
      [
        "Ġb",
        "e"
      ],
      [
        "Ġ",
        "in"
      ],
      [
        "c",
        "e"
      ],
      [
        "Ġm",
        "y"
      ],
      [
        "l",
        "e"
      ],
      [
        "Ġ",
        "ha"
      ],
      [
        "a",
        "y"
      ],
      [
        "i",
        "m"
      ],
      [
        "e",
        "d"
      ],
      [
        "e",
        "t"
      ],
      [
        "u",
        "t"
      ],
      [
        "i",
        "r"
      ],
      [
        "l",
        "d"
      ],
      [
        "ĠĠ",
        "ĠĠ"
      ],
      [
        "c",
        "h"
      ],
      [
        "Ġm",
        "e"
      ],
      [
        "it",
        "h"
      ],
      [
        "Ġn",
        "ot"
      ],
      [
        "'",
        "s"
      ],
      [
        "o",
        "d"
      ],
      [
        "Ġ",
        "is"
      ],
      [
        "Ġf",
        "or"
      ],
      [
        "g",
        "h"
      ],
      [
        "Ġt",
        "hat"
      ],
      [
        "A",
        "nd"
      ],
      [
        "k",
        "e"
      ],
      [
        "Ġ",
        "u"
      ],
      [
        "ou",
        "r"
      ],
      [
        "Ġw",
        "e"
      ],
      [
        "a",
        "d"
      ],
      [
        "Ġ",
        "e"
      ],
      [
        "en",
        "t"
      ],
      [
        "i",
        "ll"
      ],
      [
        "he",
        "r"
      ],
      [
        "Ġw",
        "ith"
      ],
      [
        "i",
        "d"
      ],
      [
        "Ġ",
        "it"
      ],
      [
        "Ġyou",
        "r"
      ],
      [
        "Ġs",
        "t"
      ],
      [
        "a",
        "l"
      ],
      [
        "Ġth",
        "ou"
      ],
      [
        "Ġ",
        "re"
      ],
      [
        "a",
        "s"
      ],
      [
        "r",
        "i"
      ],
      [
        "'",
        "d"
      ],
      [
        "Ġ",
        "k"
      ],
      [
        "=",
        "="
      ],
      [
        "om",
        "e"
      ],
      [
        "r",
        "a"
      ],
      [
        "Ġh",
        "is"
      ],
      [
        "gh",
        "t"
      ],
      [
        "E",
        "N"
      ],
      [
        "u",
        "r"
      ],
      [
        "or",
        "d"
      ],
      [
        "T",
        "he"
      ],
      [
        "l",
        "y"
      ],
      [
        "Ġha",
        "ve"
      ],
      [
        "I",
        "N"
      ],
      [
        "Ġd",
        "e"
      ],
      [
        "r",
        "o"
      ],
      [
        "Ġl",
        "i"
      ],
      [
        "Ġh",
        "im"
      ],
      [
        "ĠĠ",
        "Ġ"
      ],
      [
        "Ġth",
        "is"
      ],
      [
        "I",
        "O"
      ],
      [
        "Ġs",
        "o"
      ],
      [
        "Ġa",
        "s"
      ],
      [
        "Ġs",
        "e"
      ],
      [
        "Ġ",
        "on"
      ],
      [
        "o",
        "re"
      ],
      [
        "A",
        "R"
      ],
      [
        "h",
        "i"
      ],
      [
        "c",
        "k"
      ],
      [
        "ou",
        "ld"
      ],
      [
        "o",
        "od"
      ],
      [
        "v",
        "er"
      ],
      [
        "a",
        "in"
      ],
      [
        "a",
        "m"
      ],
      [
        "Ġl",
        "o"
      ],
      [
        "i",
        "f"
      ],
      [
        "es",
        "t"
      ],
      [
        "p",
        "e"
      ],
      [
        "g",
        "e"
      ],
      [
        "es",
        "s"
      ],
      [
        "i",
        "on"
      ],
      [
        "Ġs",
        "ha"
      ],
      [
        "Ġth",
        "y"
      ],
      [
        "u",
        "s"
      ],
      [
        "Ġd",
        "o"
      ],
      [
        "Ġw",
        "ill"
      ],
      [
        "Ġn",
        "o"
      ],
      [
        "l",
        "f"
      ],
      [
        "a",
        "nd"
      ],
      [
        "Ġb",
        "ut"
      ],
      [
        "U",
        "S"
      ],
      [
        "T",
        "o"
      ],
      [
        "Ġs",
        "u"
      ],
      [
        "T",
        "h"
      ],
      [
        "Ġa",
        "ll"
      ],
      [
        "r",
        "u"
      ],
      [
        "a",
        "ke"
      ],
      [
        "t",
        "h"
      ],
      [
        "ar",
        "d"
      ],
      [
        "Ġhe",
        "r"
      ],
      [
        "t",
        "er"
      ],
      [
        "Ġa",
        "n"
      ],
      [
        "ha",
        "n"
      ],
      [
        "a",
        "st"
      ],
      [
        "r",
        "om"
      ],
      [
        "c",
        "t"
      ],
      [
        "e",
        "ll"
      ],
      [
        "Ġn",
        "e"
      ],
      [
        "Ġ",
        "our"
      ],
      [
        "Ġthe",
        "e"
      ],
      [
        "Ġb",
        "y"
      ],
      [
        "Ġ",
        "C"
      ],
      [
        "Ġsha",
        "ll"
      ],
      [
        "Ġ",
        "v"
      ],
      [
        "i",
        "l"
      ],
      [
        "h",
        "o"
      ],
      [
        "U",
        "C"
      ],
      [
        "Ġ",
        "R"
      ],
      [
        "ĠĠĠĠ",
        "ĠĠĠ"
      ],
      [
        "a",
        "k"
      ],
      [
        "i",
        "g"
      ],
      [
        "u",
        "l"
      ],
      [
        "Ġa",
        "re"
      ],
      [
        "IN",
        "G"
      ],
      [
        "o",
        "l"
      ],
      [
        "e",
        "ar"
      ],
      [
        "Ġf",
        "a"
      ],
      [
        "==",
        "=="
      ],
      [
        "Ġk",
        "n"
      ],
      [
        "A",
        "N"
      ],
      [
        "Ġc",
        "on"
      ],
      [
        "T",
        "hat"
      ],
      [
        "E",
        "R"
      ],
      [
        "at",
        "h"
      ],
      [
        "O",
        "R"
      ],
      [
        "ou",
        "s"
      ],
      [
        "i",
        "ght"
      ],
      [
        "Ġw",
        "hat"
      ],
      [
        "an",
        "t"
      ],
      [
        "ar",
        "t"
      ],
      [
        "Ġp",
        "r"
      ],
      [
        "Ġs",
        "h"
      ],
      [
        "q",
        "u"
      ],
      [
        "i",
        "c"
      ],
      [
        "on",
        "e"
      ],
      [
        "Ġ",
        "'"
      ],
      [
        "E",
        "S"
      ],
      [
        "E",
        "T"
      ],
      [
        "-",
        "-"
      ],
      [
        "n",
        "t"
      ],
      [
        "in",
        "e"
      ],
      [
        "Ġu",
        "p"
      ],
      [
        "Ġ",
        "M"
      ],
      [
        "Ġ",
        "="
      ],
      [
        "B",
        "ut"
      ],
      [
        "e",
        "m"
      ],
      [
        "e",
        "l"
      ],
      [
        "Ġ",
        "S"
      ],
      [
        "u",
        "st"
      ],
      [
        "Ġg",
        "ood"
      ],
      [
        "Ġc",
        "om"
      ],
      [
        "â",
        "Ķ"
      ],
      [
        "Ġa",
        "t"
      ],
      [
        "r",
        "ow"
      ],
      [
        "Ġl",
        "ord"
      ],
      [
        "hi",
        "ch"
      ],
      [
        "Ġ",
        "E"
      ],
      [
        "ou",
        "t"
      ],
      [
        "'",
        "ll"
      ],
      [
        "i",
        "e"
      ],
      [
        "Ġ",
        "if"
      ],
      [
        "Ġm",
        "an"
      ],
      [
        "W",
        "hat"
      ],
      [
        "Ġw",
        "he"
      ],
      [
        "se",
        "lf"
      ],
      [
        "b",
        "le"
      ],
      [
        "K",
        "ING"
      ],
      [
        "a",
        "u"
      ],
      [
        "Ġa",
        "m"
      ],
      [
        "a",
        "re"
      ],
      [
        "Ġ",
        "G"
      ],
      [
        "r",
        "y"
      ],
      [
        "on",
        "g"
      ],
      [
        "Ġf",
        "rom"
      ],
      [
        "e",
        "nd"
      ],
      [
        "Ġb",
        "l"
      ],
      [
        "e",
        "p"
      ],
      [
        "i",
        "ve"
      ],
      [
        "v",
        "en"
      ],
      [
        "Ġ",
        "L"
      ],
      [
        "er",
        "s"
      ],
      [
        "H",
        "e"
      ],
      [
        "F",
        "or"
      ],
      [
        "o",
        "k"
      ],
      [
        "I",
        "C"
      ],
      [
        "Ġs",
        "he"
      ],
      [
        "at",
        "e"
      ],
      [
        "Ġm",
        "ore"
      ],
      [
        "Ġthe",
        "m"
      ],
      [
        "Ġw",
        "as"
      ],
      [
        "or",
        "t"
      ],
      [
        "ot",
        "h"
      ],
      [
        "ot",
        "her"
      ],
      [
        "o",
        "st"
      ],
      [
        "Ġs",
        "ir"
      ],
      [
        "re",
        "s"
      ],
      [
        "Ġn",
        "ow"
      ],
      [
        "in",
        "d"
      ],
      [
        "Ġ",
        "hat"
      ],
      [
        "a",
        "ll"
      ],
      [
        "a",
        "ve"
      ],
      [
        "L",
        "O"
      ],
      [
        "o",
        "nd"
      ],
      [
        "Ġs",
        "w"
      ],
      [
        "Ġthe",
        "re"
      ],
      [
        "f",
        "e"
      ],
      [
        "Ġw",
        "ould"
      ],
      [
        "Ġc",
        "an"
      ],
      [
        "Ġkn",
        "ow"
      ],
      [
        "Ġb",
        "r"
      ],
      [
        "I",
        "US"
      ],
      [
        "Ġ",
        "or"
      ],
      [
        "at",
        "her"
      ],
      [
        "AR",
        "D"
      ],
      [
        "Ġ",
        "O"
      ],
      [
        "Ġs",
        "ay"
      ],
      [
        "Ġa",
        "r"
      ],
      [
        "Ġ",
        "B"
      ],
      [
        "Ġhe",
        "re"
      ],
      [
        "Ġlo",
        "ve"
      ],
      [
        "Ģ",
        "âĶ"
      ],
      [
        "Ġthe",
        "ir"
      ],
      [
        "Ġu",
        "s"
      ],
      [
        "Ġt",
        "han"
      ],
      [
        "Ġthe",
        "n"
      ],
      [
        "Ġk",
        "ing"
      ],
      [
        "Ġg",
        "o"
      ],
      [
        "Ġthe",
        "y"
      ],
      [
        "M",
        "y"
      ],
      [
        "Ġs",
        "pe"
      ],
      [
        "Ġl",
        "et"
      ],
      [
        "am",
        "e"
      ],
      [
        "ĢâĶ",
        "ĢâĶ"
      ],
      [
        "Ġu",
        "n"
      ],
      [
        "u",
        "re"
      ],
      [
        "Ġ",
        "V"
      ],
      [
        "p",
        "p"
      ],
      [
        "i",
        "o"
      ],
      [
        "Ġ",
        "H"
      ],
      [
        "Ġl",
        "e"
      ],
      [
        "in",
        "k"
      ],
      [
        "Ġw",
        "or"
      ],
      [
        "Ġ",
        "A"
      ],
      [
        "Ġ",
        "qu"
      ],
      [
        "f",
        "ore"
      ],
      [
        "h",
        "y"
      ],
      [
        "Ġm",
        "ay"
      ],
      [
        "L",
        "I"
      ],
      [
        "Ġc",
        "ome"
      ],
      [
        "W",
        "he"
      ],
      [
        "u",
        "m"
      ],
      [
        "is",
        "h"
      ],
      [
        "A",
        "s"
      ],
      [
        "Ġ",
        "P"
      ],
      [
        "Ġ",
        "j"
      ],
      [
        "Ġwe",
        "ll"
      ],
      [
        "K",
        "E"
      ],
      [
        "ir",
        "st"
      ],
      [
        "v",
        "es"
      ],
      [
        "it",
        "y"
      ],
      [
        "Ġon",
        "e"
      ],
      [
        "ou",
        "nd"
      ],
      [
        "p",
        "t"
      ],
      [
        "u",
        "n"
      ],
      [
        "Ġa",
        "g"
      ],
      [
        "Ġhat",
        "h"
      ],
      [
        "is",
        "t"
      ],
      [
        "Y",
        "ou"
      ],
      [
        "Ġm",
        "ake"
      ],
      [
        "Ġh",
        "o"
      ],
      [
        "re",
        "at"
      ],
      [
        "i",
        "z"
      ],
      [
        "l",
        "o"
      ],
      [
        "Ġ",
        "r"
      ],
      [
        "Ġm",
        "ust"
      ],
      [
        "Ġp",
        "ro"
      ],
      [
        "u",
        "e"
      ],
      [
        "Ġs",
        "p"
      ],
      [
        "Ġg",
        "ra"
      ],
      [
        "c",
        "i"
      ],
      [
        "Ġwe",
        "re"
      ],
      [
        "R",
        "O"
      ],
      [
        "Ġse",
        "e"
      ],
      [
        "im",
        "e"
      ],
      [
        "Ġli",
        "ke"
      ],
      [
        "T",
        "IO"
      ],
      [
        "w",
        "ard"
      ],
      [
        "Ġsh",
        "ould"
      ],
      [
        "i",
        "ce"
      ],
      [
        "Ġp",
        "l"
      ],
      [
        "Ġm",
        "ad"
      ],
      [
        "====",
        "===="
      ],
      [
        "Ġf",
        "ather"
      ],
      [
        "Ġha",
        "d"
      ],
      [
        "Ġd",
        "id"
      ],
      [
        "n",
        "g"
      ],
      [
        "Ġup",
        "on"
      ],
      [
        "Ġ",
        "en"
      ],
      [
        "Ġ",
        "out"
      ],
      [
        "O",
        "N"
      ],
      [
        "Ġ",
        "W"
      ],
      [
        "Ġf",
        "o"
      ],
      [
        "en",
        "ce"
      ],
      [
        "a",
        "g"
      ],
      [
        "n",
        "ce"
      ],
      [
        "o",
        "se"
      ],
      [
        "ow",
        "n"
      ],
      [
        "I",
        "S"
      ],
      [
        "Ġde",
        "ath"
      ],
      [
        "Ġp",
        "o"
      ],
      [
        "m",
        "an"
      ],
      [
        "a",
        "ce"
      ],
      [
        "a",
        "ge"
      ],
      [
        "O",
        "L"
      ],
      [
        "Ġspe",
        "ak"
      ],
      [
        "ent",
        "le"
      ],
      [
        "ver",
        "y"
      ],
      [
        "A",
        "U"
      ],
      [
        "Ġw",
        "hich"
      ],
      [
        "IC",
        "H"
      ],
      [
        "E",
        "L"
      ],
      [
        "Ġf",
        "ri"
      ],
      [
        "f",
        "ul"
      ],
      [
        "ig",
        "n"
      ],
      [
        "D",
        "U"
      ],
      [
        "i",
        "es"
      ],
      [
        "Ġag",
        "ain"
      ],
      [
        "DU",
        "KE"
      ],
      [
        "a",
        "se"
      ],
      [
        "Ġh",
        "ow"
      ],
      [
        "i",
        "ck"
      ],
      [
        "a",
        "ck"
      ],
      [
        "Ġy",
        "et"
      ],
      [
        "Ġt",
        "ru"
      ],
      [
        "Ġb",
        "o"
      ],
      [
        "Ġto",
        "o"
      ],
      [
        "Ġhe",
        "art"
      ],
      [
        "ur",
        "n"
      ],
      [
        "C",
        "A"
      ],
      [
        "Ġha",
        "nd"
      ],
      [
        "id",
        "e"
      ],
      [
        "Th",
        "ou"
      ],
      [
        "an",
        "ce"
      ],
      [
        "d",
        "e"
      ],
      [
        "ICH",
        "ARD"
      ],
      [
        "EN",
        "TIO"
      ],
      [
        "W",
        "ith"
      ],
      [
        "Ġm",
        "ar"
      ],
      [
        "ha",
        "r"
      ],
      [
        "f",
        "ig"
      ],
      [
        "Ġs",
        "ome"
      ],
      [
        "Ġw",
        "ho"
      ],
      [
        "en",
        "s"
      ],
      [
        "Ġse",
        "lf"
      ],
      [
        "Ġwhe",
        "n"
      ],
      [
        "Ġs",
        "a"
      ],
      [
        "W",
        "hich"
      ],
      [
        "i",
        "re"
      ],
      [
        "I",
        "f"
      ],
      [
        "Ġ",
        "T"
      ],
      [
        "Ġ",
        "Y"
      ],
      [
        "Ġof",
        "f"
      ],
      [
        "Ġm",
        "ine"
      ],
      [
        "Ġh",
        "on"
      ],
      [
        "I",
        "n"
      ],
      [
        "or",
        "n"
      ],
      [
        "W",
        "e"
      ],
      [
        "in",
        "ce"
      ],
      [
        "IN",
        "C"
      ],
      [
        "'",
        "t"
      ],
      [
        "Ġs",
        "on"
      ],
      [
        "Ġd",
        "is"
      ],
      [
        "f",
        "f"
      ],
      [
        "w",
        "n"
      ],
      [
        "Ġa",
        "l"
      ],
      [
        "Ġt",
        "ime"
      ],
      [
        "Ġe",
        "x"
      ],
      [
        "e",
        "c"
      ],
      [
        "F",
        "irst"
      ],
      [
        "u",
        "ch"
      ],
      [
        "Ġhe",
        "a"
      ],
      [
        "Ġhe",
        "ar"
      ],
      [
        "A",
        "B"
      ],
      [
        "Ġsu",
        "ch"
      ],
      [
        "n",
        "ess"
      ],
      [
        "L",
        "A"
      ],
      [
        "Ġp",
        "e"
      ],
      [
        "Ġbr",
        "other"
      ],
      [
        "N",
        "o"
      ],
      [
        "is",
        "e"
      ],
      [
        "at",
        "ion"
      ],
      [
        "Ġin",
        "t"
      ],
      [
        "Ġbl",
        "ood"
      ],
      [
        "Ġ",
        "D"
      ],
      [
        "Ġa",
        "b"
      ],
      [
        "it",
        "her"
      ],
      [
        "U",
        "E"
      ],
      [
        "W",
        "hy"
      ],
      [
        "Ġthe",
        "se"
      ],
      [
        "Ġg",
        "ive"
      ],
      [
        "s",
        "s"
      ],
      [
        "Ġ",
        "ro"
      ],
      [
        "Ġd",
        "ay"
      ],
      [
        "ES",
        "T"
      ],
      [
        "o",
        "p"
      ],
      [
        "ĠI",
        "I"
      ],
      [
        "Th",
        "is"
      ],
      [
        "Ġe",
        "ar"
      ],
      [
        "ĠR",
        "ICHARD"
      ],
      [
        "Ġt",
        "ell"
      ],
      [
        "Ġth",
        "ink"
      ],
      [
        "Ġli",
        "fe"
      ],
      [
        "S",
        "o"
      ],
      [
        "e",
        "et"
      ],
      [
        "Ġlo",
        "ok"
      ],
      [
        "UC",
        "H"
      ],
      [
        "Ġwhe",
        "re"
      ],
      [
        "ou",
        "l"
      ],
      [
        "Ġw",
        "ord"
      ],
      [
        "Ġe",
        "y"
      ],
      [
        "O",
        "f"
      ],
      [
        "t",
        "her"
      ],
      [
        "Ġd",
        "es"
      ],
      [
        "G",
        "LO"
      ],
      [
        "a",
        "p"
      ],
      [
        "Ġt",
        "ake"
      ],
      [
        "UC",
        "EST"
      ],
      [
        "Ġfri",
        "end"
      ],
      [
        "GLO",
        "UCEST"
      ],
      [
        "GLOUCEST",
        "ER"
      ],
      [
        "v",
        "ing"
      ],
      [
        "n",
        "ot"
      ],
      [
        "ad",
        "y"
      ],
      [
        "e",
        "en"
      ],
      [
        "ing",
        "s"
      ],
      [
        "as",
        "s"
      ],
      [
        "row",
        "n"
      ],
      [
        "ur",
        "se"
      ],
      [
        "Ġg",
        "entle"
      ],
      [
        "H",
        "ow"
      ],
      [
        "R",
        "Y"
      ],
      [
        "Q",
        "UE"
      ],
      [
        "w",
        "ay"
      ],
      [
        "ĠĠĠĠ",
        "ĠĠĠĠĠĠĠ"
      ],
      [
        "INC",
        "ENTIO"
      ],
      [
        "QUE",
        "EN"
      ],
      [
        "x",
        "t"
      ],
      [
        "Ġ",
        "im"
      ],
      [
        "t",
        "is"
      ],
      [
        "ĠO",
        "F"
      ],
      [
        "Ġar",
        "t"
      ],
      [
        "L",
        "AN"
      ],
      [
        "Ġm",
        "ost"
      ],
      [
        "U",
        "M"
      ],
      [
        "Whe",
        "re"
      ],
      [
        "Ġhon",
        "our"
      ],
      [
        "N",
        "ow"
      ],
      [
        "Ġm",
        "uch"
      ],
      [
        "Ġw",
        "ar"
      ],
      [
        "l",
        "i"
      ],
      [
        "m",
        "ent"
      ],
      [
        "Ġmad",
        "e"
      ],
      [
        "Ġbe",
        "t"
      ],
      [
        "Ġha",
        "st"
      ],
      [
[...]
